[PAD]
[UNK]
[START]
[END]
!
"
#
$
%
&
'
(
)
*
,
-
.
/
0
1
2
3
4
5
6
7
8
9
:
;
<
=
>
?
@
[
\
]
^
_
a
b
c
d
e
f
g
h
i
j
k
l
m
n
o
p
q
r
s
t
u
v
w
x
y
z
{
|
}
£
§
©
®
°
æ
ø
μ
π
†
•
‰
€
␣
♭
♯
the
math
of
and
in
is
to
for
that
we
ref
mathdisp
by
with
are
as
be
this
cite
on
can
from
it
an
which
at
have
where
##s
if
not
one
then
time
or
two
all
such
model
has
system
also
these
function
using
there
each
given
case
data
only
let
first
when
between
will
set
our
order
was
see
following
used
number
more
some
results
section
other
since
but
its
than
so
field
different
been
any
problem
equation
based
into
point
solution
thus
same
value
may
fig
non
however
figure
state
values
energy
both
theorem
method
use
their
space
form
matrix
follows
defined
therefore
consider
they
well
process
shown
obtained
example
large
above
parameters
magnetic
were
control
linear
algorithm
models
obtain
result
distribution
functions
show
over
systems
now
small
equations
respectively
no
three
second
here
analysis
note
high
constant
due
paper
vector
parameter
approach
hence
while
points
condition
conditions
because
positive
corresponding
under
most
terms
solar
very
##ing
new
eq
proof
general
line
assume
shows
zero
structure
al
possible
rate
information
about
et
similar
observed
level
phase
lemma
solutions
type
study
does
proposed
us
should
density
image
region
would
real
probability
initial
frequency
out
particular
term
after
theory
mass
random
present
found
up
many
work
considered
fact
even
known
##ed
methods
through
dimensional
size
find
single
##d
exists
do
low
surface
finite
called
part
way
hand
define
variables
##a
boundary
scale
important
properties
during
every
table
mean
sequence
continuous
could
fixed
performance
network
step
standard
described
get
respect
##ly
within
associated
local
input
effect
##e
those
simple
higher
further
range
like
must
denote
group
lower
current
temperature
power
error
loop
optimal
independent
presented
right
implies
total
means
class
several
cases
without
flux
wave
according
next
complex
how
limit
moreover
maximum
states
definition
distance
##r
nonlinear
##t
finally
images
dynamics
main
free
length
along
variable
average
need
being
holds
problems
them
potential
factor
applied
times
effects
signal
behavior
operator
difference
measure
related
estimate
##er
change
previous
bounded
stability
velocity
equal
regions
below
less
motion
stable
cross
gives
least
lines
numerical
output
observations
another
much
elements
node
left
negative
direction
processes
design
coefficients
scheme
mode
fields
10
sets
##m
four
sample
larger
assumption
components
##n
seen
take
component
determined
equilibrium
flow
source
cannot
provide
period
test
suppose
light
approximation
position
inequality
prove
differential
before
series
##c
long
simulation
property
compared
last
satisfies
normal
give
either
ratio
ii
studied
##o
bound
graph
matrices
applications
discussed
expression
expected
domain
plane
becomes
##i
side
##l
addition
speed
cost
##al
area
existence
still
increase
generated
spatial
cycle
noise
algorithms
exist
available
nodes
constraints
closed
element
interaction
interval
strong
sum
account
although
equivalent
global
changes
index
relation
path
end
transition
features
good
response
minimum
introduced
effective
relative
map
view
evolution
coupling
active
around
various
chosen
events
taken
near
what
best
increasing
th
make
application
furthermore
procedure
dependent
upper
polynomial
required
measurements
computed
assumed
edge
shape
product
close
pair
formula
specific
representation
multiple
derived
allows
better
integral
spectral
basis
smaller
degree
measured
taking
full
calculated
multi
event
original
complete
discrete
unique
structures
spectrum
dynamic
resulting
force
instance
intensity
##y
leads
physical
##p
provided
population
among
contains
invariant
correlation
##es
denotes
via
particle
indeed
provides
always
estimation
written
additional
techniques
modes
proposition
again
just
true
key
experimental
delay
cell
made
symmetric
necessary
increases
critical
compute
scalar
depends
numbers
action
filter
laser
angle
developed
whose
symmetry
significant
coronal
technique
channel
including
yields
reduced
curve
easily
directly
amplitude
estimated
unit
coefficient
periodic
##g
waves
frame
clearly
vertex
vectors
dimension
instead
particles
chapter
estimates
rather
dependence
individual
gauge
open
emission
framework
corresponds
user
certain
comparison
convergence
computation
distributions
often
common
vertices
black
choice
search
quantum
connected
top
performed
center
approaches
determine
law
experiments
axis
self
represents
processing
feature
production
functional
classical
rates
transformation
direct
coordinates
service
controller
together
stochastic
tree
natural
satisfy
few
similarly
parallel
clear
decay
object
enough
write
electron
final
momentum
variation
contribution
networks
choose
per
arbitrary
optimization
might
introduce
flare
3d
describe
usually
almost
basic
plasma
whether
resolution
quark
gaussian
weak
special
interest
studies
details
expansion
consistent
reference
applying
apply
threshold
extended
types
optical
sun
##f
beam
constraint
observe
already
derivative
leading
simulations
presence
parts
background
context
sense
convex
distributed
easy
spin
denoted
sufficient
considering
theoretical
examples
third
interesting
done
expressed
rotation
having
represent
cme
satisfying
off
strategy
consists
namely
generalized
setting
say
requires
##h
factors
fast
edges
##b
target
fit
norm
computing
constants
able
matter
memory
short
recent
impact
he
body
loss
square
complexity
lead
detection
recall
variance
become
layer
include
tax
asymptotic
measurement
activity
solve
assumptions
configuration
later
computational
efficient
integer
years
far
mechanism
takes
##on
cells
partial
mapping
proved
useful
appropriate
steps
hole
literature
recently
operators
represented
depend
nm
research
volume
groups
peak
amount
inverse
role
pattern
rule
hold
transform
accuracy
grid
errors
family
objects
exact
know
consequently
words
principle
metric
discuss
location
satisfied
weight
curves
thermal
allow
conclude
sections
characteristic
uniform
environment
latter
sources
smooth
growth
ones
sub
calculate
stage
construction
once
higgs
##2
calculation
feedback
knowledge
observation
modeling
selected
modified
needed
sampling
whole
gain
whereas
contrast
regular
mentioned
compact
depending
starting
radius
had
support
quality
assuming
exactly
subset
fluid
reduce
relevant
authors
future
pairs
pressure
scattering
width
version
##0
too
ray
idea
contributions
coordinate
investigated
lattice
dark
interactions
band
quite
efficiency
difficult
core
##k
pixel
integration
stationary
varying
differences
remains
##ity
12
20
generally
material
exponential
wind
central
start
simply
communication
characteristics
occur
task
combination
induced
suitable
construct
algebra
block
levels
description
reduction
focus
derive
game
operation
geometric
uses
notice
transfer
achieved
samples
shift
infinite
spectra
magnitude
typical
implementation
makes
notation
reported
relatively
color
iii
sequences
sect
selection
compare
shall
relations
geometry
otherwise
statistical
works
situation
profile
detailed
occurs
measures
origin
down
significantly
solving
robust
produced
external
mathematical
propagation
dual
transmission
fundamental
projection
frequencies
column
chain
extension
steady
diffusion
appear
half
quadratic
sufficiently
eigenvalues
valid
maps
dimensions
itself
forms
protocol
overall
approximate
machine
minimal
##an
oscillations
depth
message
back
explicit
signals
inside
dynamical
limited
produce
synchronization
scenario
##able
loops
figures
##1
kernel
diagonal
require
wavelength
coupled
fourier
temporal
##ic
physics
subject
strongly
unknown
angular
objective
likelihood
generate
his
especially
desired
##v
identified
classes
who
question
cf
ideal
patterns
remark
valued
included
radiation
bifurcation
towards
until
experiment
human
across
discussion
influence
hard
though
tensor
cluster
identity
nature
decomposition
refer
expressions
charge
etc
pixels
radio
constructed
generation
relationship
consequence
base
job
hypothesis
typically
perform
masses
appears
disk
strength
showed
lyapunov
vertical
needs
investigate
appendix
formulation
gravity
sunspot
completely
double
pulse
calculations
row
call
operations
designed
eqs
homogeneous
formation
reason
code
heavy
sign
greater
hamiltonian
spaces
adaptive
correspond
criterion
internal
trivial
decrease
virtual
semi
follow
pre
joint
lie
solved
gradient
alternative
development
derivatives
##3
indicates
place
forces
11
15
markov
variations
check
agreement
bounds
moment
diagram
forward
rules
world
argument
achieve
uncertainty
proportional
asymptotically
chaotic
existing
perturbation
root
jobs
entropy
string
uniformly
computer
radial
actually
sensor
##ness
contain
except
horizon
scales
running
fractional
##4
approximately
corrections
face
areas
quasi
turn
decreases
detail
electrons
unstable
electric
usual
##u
panel
includes
height
corollary
decreasing
containing
conditional
course
identify
longer
estimator
schemes
30
underlying
prior
rank
located
co
polynomials
switching
combined
partition
photon
security
run
matching
algebraic
probabilities
implemented
correct
prediction
directions
kind
slow
wide
likely
100
reduces
remaining
cloud
highly
propose
transformations
purpose
resonance
link
five
ground
increased
covariance
universe
issue
concept
fully
earth
obviously
against
binary
manifold
finding
mainly
scaling
upon
cmes
inner
static
intervals
filament
slightly
channels
access
seems
analyzed
positions
users
distinct
practical
architecture
bottom
recognition
##5
maximal
acceleration
decision
corona
cycles
circuit
singular
goal
making
null
quantities
actual
explicitly
carried
list
weights
accurate
anti
advantage
degrees
stereo
strictly
identical
reconstruction
##in
yet
gev
moving
evaluation
iteration
horizontal
yield
bit
mesh
graphs
queue
absolute
detected
units
load
fraction
established
entire
precisely
allowed
improve
lagrangian
concentration
converges
price
generating
absorption
km
gap
analytical
tracking
species
illustrated
contact
regression
medium
specifically
equality
##w
describes
previously
orthogonal
16
sm
language
noted
statistics
indicate
execution
risk
analyze
mm
policy
specified
trajectory
sensitivity
camera
weighted
earlier
inequalities
shock
services
curvature
strategies
controlled
evaluated
surfaces
deviation
individuals
gas
fitting
re
training
precision
##or
cut
empirical
substituting
rest
program
comparing
ar
##ation
server
cm
explained
tests
possibility
behaviour
software
topology
employed
classification
connection
combining
video
flares
uncertainties
interpretation
transverse
involved
rise
ut
eigenvalue
web
polarization
reaction
13
agents
move
early
others
front
profiles
simultaneously
requirements
14
put
avoid
year
conclusion
largest
poisson
flat
paths
velocities
presents
mixed
heat
beyond
intersection
transport
holes
energies
green
query
harmonic
normalized
##le
excitation
formed
definite
practice
##ers
major
freedom
regime
extend
locally
quantity
voltage
sphere
added
indices
obvious
scheduling
onto
amplitudes
mixing
did
treatment
moments
improved
resources
qcd
attention
cone
consumption
neutral
50
de
integrated
boson
simulated
plot
replaced
claim
flows
issues
item
empty
evaluate
market
##is
caused
simplicity
2d
spacecraft
diagrams
contained
gluon
limits
explain
intermediate
reach
necessarily
agent
tasks
illustrate
chemical
social
exchange
resource
euclidean
understanding
distances
learning
notion
periods
expect
look
characterized
verify
##ally
said
site
constrained
demonstrated
tool
visible
identification
proper
public
white
driven
soft
correction
log
visual
help
phenomena
variety
imply
separation
throughout
criteria
sensitive
straightforward
deterministic
neighborhood
content
##z
red
##x
25
immediately
odd
feasible
day
modeled
inputs
bias
layers
##en
linearly
orbit
2007
##us
manner
want
ability
days
adding
suggested
opposite
duration
segment
aim
away
capacity
essentially
angles
references
clusters
demonstrate
particularly
player
sector
##6
address
analytic
damping
mechanisms
2005
##7
2004
collection
fluctuations
nevertheless
reasonable
interface
locations
evidence
device
word
extra
six
trace
filtering
orientation
pass
outside
subsection
affect
bandwidth
changing
predicted
box
window
##te
stars
devices
goes
2006
arguments
importance
polar
theorems
stress
little
play
blocks
neural
fe
ion
robot
thin
choosing
missing
schedule
temperatures
database
oscillation
sizes
charged
densities
precise
composition
fix
followed
referred
primary
marginal
defines
statement
programming
definitions
candidate
filters
interested
parametric
widely
frames
phenomenon
atoms
solid
remain
ways
dispersion
dominant
deal
representing
lies
suggest
separate
defining
suggests
costs
kinetic
add
##8
negligible
vacuum
ordinary
products
##ization
##man
ensure
helicity
review
essential
collision
pure
scenarios
2003
involving
delays
trajectories
conventional
entries
restricted
predictions
cavity
requirement
roots
highest
understand
canonical
contradiction
signature
array
decays
involves
thickness
comes
correlations
messages
traffic
sec
water
17
links
structural
##um
boundaries
subspace
complicated
transitions
extracted
euler
introduction
branch
beginning
materials
jet
logic
generic
breaking
update
numerically
interior
develop
reconnection
2008
23
cause
select
adversary
realistic
establish
##ts
2000
papers
##rs
packet
phases
segments
configurations
past
neutrino
continuity
routing
nearly
stated
averaged
testing
hybrid
received
symbol
##ized
##nt
assigned
dominated
created
consisting
adjacent
own
columns
figs
##ment
similarity
why
impulsive
indicated
jump
showing
hopf
aspects
composed
deduce
instability
calibration
great
infinity
atmosphere
cover
organized
deformation
star
instances
nonnegative
introducing
longitudinal
module
pulses
perturbations
read
return
split
##as
article
compression
euv
##9
expectation
collisions
fault
observer
orders
possibly
reached
consistency
gene
2002
generality
reader
independently
concerning
items
rigid
strain
text
besides
sides
belongs
crystal
starts
theories
clustering
go
simplified
proton
displacement
drift
reflection
detector
iterative
##ive
produces
squares
18
describing
formulas
scene
motions
technology
enhanced
equals
couplings
24
divided
polarity
##ar
match
randomly
vary
continuum
turns
absence
integers
fuzzy
approximated
photospheric
ring
age
working
mhz
quarks
treated
investigation
keep
orbits
spherical
generator
transformed
tends
##ability
hours
lhc
lowest
invariance
book
domains
games
life
imaginary
tools
create
elastic
diameter
mechanical
smallest
consideration
triangle
blue
faster
people
weakly
interpreted
arise
whenever
bulk
posterior
setup
character
##ted
##ting
computations
traditional
segmentation
extreme
bits
capture
cosmological
sites
score
perfect
coverage
going
inversion
plotted
utility
2009
sometimes
improvement
resp
subsequent
integrating
machines
providing
sampled
separated
2001
operating
come
wavelet
arrival
regarding
##ian
tube
restriction
representations
affine
affected
attack
exhibit
admissible
tuning
planar
zone
conclusions
asymmetry
embedded
ratios
adopted
translation
round
initially
peaks
equivalence
exponentially
##ion
income
net
outer
balance
induction
iterations
situations
fine
novel
##ies
allowing
integrals
meaning
##ities
##less
crucial
detect
limb
additionally
gravitational
conservation
sensors
build
removed
briefly
convenient
ball
measurable
stored
atomic
former
quiet
trees
neighbors
players
auxiliary
interpolation
stronger
##el
analogous
residual
verified
perturbative
rays
reads
robustness
incident
correlated
post
respective
##ant
appearance
you
comparable
40
determines
inter
reasons
##ns
disturbance
electronic
equivalently
exponent
ordered
summary
belong
directed
derivation
guarantee
lengths
au
differ
confidence
rendering
latitude
determining
heating
commonly
principal
combinations
generates
22
prime
lorentz
picture
runs
storage
systematic
variational
uniqueness
biological
chiral
interference
relaxation
resonant
buffer
pseudo
naturally
slope
differentiable
branching
estimators
customers
ions
realized
##et
supported
meson
dipole
outputs
responses
converge
depicted
hilbert
tested
minimize
topological
acoustic
answer
continuously
cosmic
switched
automatically
bayesian
electromagnetic
firstly
modulation
roughly
##se
bright
plant
plots
built
flexible
probabilistic
dense
tend
imaging
replacing
causes
iv
rows
seconds
squared
returns
tables
transient
##ov
giving
equilibria
hardware
emergence
faces
elliptic
straight
subsets
molecular
management
determination
master
universal
##ge
reliable
demand
implement
kinds
never
secure
##th
shapes
volatility
approximations
share
oscillatory
2010
circle
focused
movement
tangent
film
rewritten
air
fourth
generalization
sparse
elementary
separately
coherent
despite
##ch
obtaining
formulated
varies
##ia
nonzero
relativistic
interacting
document
formal
##os
centered
shifts
##ss
performing
priori
fusion
gets
contribute
##ary
lifetime
rational
travel
19
dirac
efficiently
metal
sliding
extent
plays
replace
concepts
ghz
protocols
inclusion
laplace
brownian
laws
21
bursts
splitting
understood
dataset
globally
fiber
##tion
cauchy
fits
closely
currently
##ous
benefit
changed
distinguish
occurrence
stream
ordering
applicable
einstein
embedding
limiting
union
illustrates
lipschitz
symbols
probe
pump
completes
obtains
photosphere
rope
activities
advantages
radiative
1999
option
pointed
mhd
prey
disease
methodology
worth
robots
nor
file
instrument
recorded
minutes
addressed
latent
vanishes
eruption
shared
digital
mobile
arises
release
resistance
handle
correspondence
probably
therein
estimating
mostly
moves
purely
proofs
si
##st
motivated
generators
listed
molecules
##ms
implicit
divergence
processor
repeated
conjecture
count
effectively
pole
engineering
excited
lack
mixture
zeros
##ry
axial
substrate
reducing
circular
difficulty
tail
modification
uncertain
##ating
bands
lagrange
parton
reaches
smoothing
delayed
applies
mev
queries
fitted
susy
##ble
building
disjoint
perpendicular
unlike
express
wavelengths
##ate
doppler
drawn
happens
modelling
procedures
minimization
abelian
backward
capital
choices
begin
science
questions
technical
actions
averaging
deviations
super
effort
failure
nontrivial
assumes
hidden
isolated
optimality
additive
extract
monte
carlo
stokes
history
arc
enhancement
extremely
observational
convection
encryption
examine
heuristic
predict
minimizing
permutation
predator
ranges
controllers
eventually
formally
piecewise
texture
responsible
spread
calculating
remove
studying
electrical
singularity
vanishing
cpu
placed
shell
simplest
track
vehicle
experimentally
behind
gpu
nuclear
looking
speeds
conversion
false
purposes
thread
closer
compatible
proves
##re
intrinsic
signatures
successfully
head
trend
explore
name
party
coincides
hierarchical
neighbor
pose
unfortunately
variability
trade
##izing
published
stages
somewhat
writing
spacetime
summarized
cyclic
rapidly
formalism
middle
plus
hash
logical
narrow
seem
neither
representative
banach
enables
levy
torque
1998
contrary
abstract
assignment
effectiveness
nearest
customer
shear
apparent
category
momenta
photons
crossing
mirror
host
rotating
adjoint
bosons
min
multiplication
telescope
observing
partially
##tic
localized
noting
observable
sight
statistic
analyses
oscillator
behaviors
guaranteed
synthesis
admits
aspect
researchers
reset
saturation
ensures
lepton
nominal
dirichlet
extensions
ms
oriented
composite
person
sharing
subgroup
semantic
terminal
ideas
policies
simpler
finds
taylor
##ne
logarithmic
nonlinearity
notations
entry
icme
receiver
labeled
##ize
processed
validity
big
popular
alignment
controls
infrared
request
strict
contour
kinematic
##ling
acting
imposed
intensities
project
##ce
guarantees
proceed
subsequently
##ng
1996
accordingly
beams
##ra
adapted
cubic
try
martingale
transforms
powerful
##ps
unity
drive
secondary
toward
community
irreducible
regularity
brightness
coming
coding
considers
correctly
successful
topic
reconstructed
viewed
brane
regarded
covered
led
rewrite
arrive
employ
labor
massive
connectivity
letting
liquid
newton
report
##ance
consecutive
convergent
sheet
friction
updated
cache
categories
dashed
driving
substitution
mechanics
perspective
simplify
stands
collected
degenerate
genes
quantitative
indicating
projected
walk
devoted
dissipation
chaos
government
label
spatially
filaments
hypotheses
impossible
members
concerned
modules
principles
relationships
allocation
carry
integrable
normalization
sound
versus
##ons
marked
trust
twist
environments
passing
soho
multivariate
parties
stock
##ial
broad
success
ten
characterization
coincide
currents
chains
shifted
propagating
supply
populations
suffices
60
bodies
disturbances
simulator
median
recursive
acts
mention
packets
realization
connecting
laplacian
private
trap
atom
stiffness
conjugate
covering
simultaneous
slowly
extraction
majority
families
losses
performs
sequential
leaves
sharp
soliton
thereby
binding
jumps
threads
occurred
##ent
gains
unitary
27
involve
multiplying
documents
1997
significance
gate
characterize
hierarchy
overcome
hot
limitations
optimized
switch
arbitrarily
tip
multiplicity
##at
engine
media
optimum
sent
countries
proportion
worst
kernels
page
resolved
sunspots
refers
##ck
confirmed
measuring
rotational
tev
overlap
plate
properly
automatic
considerable
magnetograms
projective
##ised
powers
recovery
structured
competition
exhibits
fermi
themselves
hadronic
sums
survey
##ner
distortion
monotone
reliability
##ds
brst
platform
jets
specification
##est
weaker
independence
##ler
proven
frequently
constructing
factorization
##ated
equally
adopt
arising
counting
physically
poles
icmes
computationally
displayed
online
restrict
triple
000
benefits
explanation
lot
200
protein
##tor
checked
##de
combinatorial
outcome
readily
shaped
specify
reflected
simulate
bin
candidates
accurately
association
dimensionless
ends
processors
##ter
instruments
maintain
##ty
alfven
apart
convenience
discovery
hadron
codes
combine
cooling
kept
pairwise
triangles
consist
stabilization
2011
isotropic
reactions
alone
attractor
coherence
monitoring
inference
ip
partitions
potentially
scaled
connections
uv
evident
display
emerging
pion
conducted
unless
multiplicative
dealing
mdi
accelerated
analyzing
complement
eight
gauss
perhaps
twice
##ging
##ll
introduces
vanish
infected
neglected
symmetries
death
hz
internet
polytope
proving
burst
interplanetary
lemmas
nlo
films
jacobian
np
recover
stop
strings
anisotropic
conformal
restrictions
baseline
considerably
experience
poor
uniquely
axes
quickly
settings
eit
modern
spot
triangular
discretization
classified
pid
completed
appeared
nash
offset
shorter
keeping
fermion
captured
challenging
considerations
successive
affects
started
##ring
brief
attempt
examined
believe
ca
ev
expanding
minima
##ping
damage
servers
viscosity
datasets
neighboring
conductivity
mind
room
shortest
identities
spanning
surrounding
relies
continue
selecting
antenna
belonging
deep
incoming
investigations
neutrinos
amounts
analytically
cp
fluxes
patch
polarized
extends
mc
potentials
preserving
transmitted
country
qualitative
conservative
date
sensing
spline
##ta
autonomous
cube
divide
rely
versions
activation
borel
propagator
receive
secret
business
stellar
kev
1995
overview
##ls
26
28
act
alternatively
artificial
corrected
environmental
portion
secondly
suppressed
absolutely
atmospheric
challenge
infinitely
ir
revealed
illumination
appearing
arithmetic
exposure
findings
interactive
convolution
heterogeneous
metrics
microwave
35
actuator
waiting
flavor
ensemble
fermions
completeness
growing
weighting
45
linked
prices
reverse
variant
injection
offers
reproduce
##q
firm
tight
break
capable
her
incidence
percent
asymmetric
extensively
thought
workload
##ivity
attacks
circuits
executed
planes
##ile
closest
concentrations
young
balanced
computes
extensive
irradiance
centers
micro
payoff
quantization
scientific
default
denoting
sake
wise
flight
normally
##ot
happen
store
subjects
gamma
reveal
attractive
geometrical
modify
university
displays
drop
north
poincare
think
300
diffraction
mappings
removing
client
colors
agree
batch
infection
parabolic
reveals
aligned
dot
observatory
panels
programs
couple
rotor
decisions
easier
enable
formulate
immediate
onset
retrieval
span
benchmark
employing
genetic
requests
singularities
overhead
##am
completion
convective
mid
passive
saddle
subsystem
throughput
triangulation
coulomb
functionality
modulus
planning
remainder
technologies
turbulence
unbounded
violation
cr
thick
landau
mathematics
counts
90
homology
speaking
histogram
keys
mapped
spectroscopy
##ine
predictive
tubes
regard
scores
identifying
lost
old
parent
route
sobolev
decades
linearized
numerous
draw
smoothness
##ma
concluded
##nd
consequences
extremal
interact
overlapping
plan
really
simplex
occurring
ramanujan
sr
destination
oracle
substantial
cooperative
creation
fall
neurons
progress
wang
##age
bank
meet
augmented
adjusted
boolean
dc
determinant
##ence
##nce
lateral
motor
subsequence
firms
investment
leave
greatly
producing
recovered
rich
##la
##ors
evaluating
gave
li
mesons
rapid
discovered
penalty
barrier
centre
maximize
possibilities
statistically
truth
energetic
kink
##isation
parametrization
polygon
prescribed
summation
synthetic
##fs
##ped
00
bases
ccd
conserved
economic
indicator
late
duality
fails
percentage
skeleton
##00
broken
observables
reflect
solver
perturbed
author
developing
soon
##line
32
efforts
##id
fairly
instant
maxima
treat
##cs
##ged
care
prominence
mutual
resonances
supports
gait
holder
inspired
simplicial
certainly
difficulties
thanks
possesses
chromosphere
status
students
summarize
refractive
renormalization
targets
##ton
80
concerns
parity
verification
gradients
requiring
infinitesimal
offer
sends
##ible
latitudes
1000
focusing
serve
##to
eliminate
grows
hmi
art
boxes
characters
regardless
today
##berg
ambient
basically
covers
inertia
orbital
virtue
branches
##ward
extending
doing
yukawa
assertion
confirm
conversely
daily
largely
lebesgue
massless
participants
theoretically
contraction
isomorphism
rotations
wall
availability
preliminary
vibration
cumulative
decomposed
desirable
explored
facts
jacobi
scope
architectures
minor
modifications
options
reflectance
comparisons
statements
500
assess
bounding
lmi
oscillators
utilized
anomalous
attributed
covariant
parameterized
##it
advanced
collective
consensus
interpret
manifolds
member
motivation
promising
##da
bilinear
localization
patches
reflects
suppression
anisotropy
clock
molecule
phantom
preferred
primitive
slight
acceptable
deduced
survival
##bility
filled
pointing
refs
scan
vicinity
vision
lying
residuals
widths
financial
peer
validation
driver
template
##me
excess
extinction
invertible
pdf
evolutionary
fitness
vs
closure
fold
unchanged
usage
hull
impose
labels
send
analogue
analogy
charges
emissions
markovian
discontinuous
gray
inferred
stopping
calculus
decide
lasco
spike
windows
1994
accepted
electroweak
truncated
##ium
cancellation
governed
induces
realize
station
eigenvectors
lasers
presentation
##gs
29
carrier
diffuse
hyperbolic
integrate
none
receives
flexibility
impulse
moderate
riemann
views
##ular
exploit
hydrogen
aims
chromospheric
dm
subspaces
van
##red
shadow
variants
extrapolation
heights
modulo
traveling
aircraft
entirely
neumann
preceding
ranking
singlet
cutoff
isomorphic
she
complementary
differs
meaningful
##ified
classifier
envelope
forming
functionals
##tes
degradation
exceeds
implications
kinematics
limitation
taxes
omitted
thresholds
1993
argue
bifurcations
ga
metallic
pde
capability
iff
portfolio
searching
aia
aware
bi
exponents
perfectly
decreased
cameras
demonstrates
##j
identically
matlab
ranging
reaching
##son
mssm
named
##ative
latency
originally
yielding
##ning
azimuthal
coarse
exceed
slower
assessment
attached
controlling
organization
turbulent
##ibility
crystals
expansions
rectangular
sink
adequate
footpoints
improves
magnetogram
matched
counter
dielectric
governing
handed
inertial
insight
norms
outcomes
satellite
children
copy
formulae
phonon
projections
recurrent
slit
##ding
solves
west
95
dots
fulfilled
inherent
shocks
##ft
##ve
expensive
phenomenological
prevent
situ
vortex
drawing
filtered
ode
##ist
inserting
twisted
unified
equipped
format
##ke
accounts
ad
discrepancy
semigroup
##ier
##ism
algebras
infer
relate
swarm
viscous
wireless
excellent
exploited
illustration
redundant
1d
fluctuation
ghost
indirect
rare
creating
max
membrane
stack
substantially
tunneling
fail
fashion
##les
assign
fermionic
generalize
pitch
concave
converted
cores
eos
idle
incorporate
##tive
multiplier
partitioning
theoretic
arcs
arrays
contours
solitons
##ur
adaptation
emitted
longitude
##ification
attempts
designs
scattered
abundance
cadence
circles
collinear
complexes
confined
magnetization
polygons
pricing
2012
bessel
corner
cuts
exercise
los
south
thermodynamic
comprehensive
logistic
planck
reality
recognized
bundle
emphasize
enter
inclusive
subdivision
torsion
##bs
achieves
arabic
infrastructure
trapped
chip
dynamically
dynamo
excluded
induce
intersect
spring
##ct
##led
##sing
baryon
challenges
invariants
##na
dedicated
grow
lag
noaa
profit
suited
dae
enhance
mission
##rt
birth
harmonics
noticed
regularization
scalars
conduction
deposition
directional
expanded
kalman
languages
relevance
remarkable
dependency
division
improvements
learn
modal
violating
cartesian
continued
notions
seven
tuple
##ator
##ger
incorporated
linearity
persistence
turing
##im
colour
east
forcing
matches
primarily
31
capabilities
inhomogeneous
reconstruct
regimes
speech
##ld
attributes
indexed
noisy
priority
remote
clouds
concludes
eye
removal
supersymmetric
competitive
concentrated
greedy
henkin
organic
streamer
supposed
url
denominator
food
geodesic
improving
putting
queues
record
33
flaring
leakage
package
smart
##ful
aggregation
covariates
differentiation
everywhere
graphics
contradicts
intuitively
ads
connect
detectors
em
mimo
orthonormal
pension
primitives
##ze
behaves
ch
revenue
stabilizing
surely
arrangement
drag
hyperplane
intuitive
simplification
superconducting
dna
huge
newly
semantics
became
##ise
advance
cylindrical
nonparametric
passes
sdo
sequel
took
##ably
ablation
faults
influenced
delta
varied
viewpoint
chen
doped
implying
operate
spheres
strengths
expand
lens
library
nucleus
places
schrodinger
minute
ask
evolve
forced
propagate
signs
updates
vice
aforementioned
discontinuity
membership
reasoning
resulted
substitute
bad
descriptor
junction
loading
nonempty
raman
refinement
things
attribute
nucleon
smoothed
tension
fs
practically
skew
binomial
db
eliminated
handling
meshes
pomeron
protons
honest
totally
carrying
nanoparticles
nothing
radii
##istic
concrete
deals
hmm
mortality
##and
contributes
detecting
elasticity
transferred
versa
weather
multiplied
reports
triplet
commutative
eigenvector
falls
hop
operational
designing
fixing
implementations
qualitatively
my
supporting
tag
acquired
cylinder
modular
released
##point
cellular
communications
encoding
partitioned
preserve
wish
##rd
maxwell
recurrence
silicon
solitary
streams
##ure
36
cones
defect
maximizing
pendulum
raw
welfare
##ley
beta
files
outlined
records
scanning
analogously
electrodes
implicitly
interfaces
periodicity
road
utilize
variances
worse
##tation
evolves
tradeoff
wilson
discussions
luminosity
ml
seed
spikes
##ite
1990
cold
joints
mobility
outgoing
sort
realizations
receiving
su
attractors
cascade
leader
migration
minimizes
sitter
##ants
commercial
gluons
health
leaf
remarks
1992
accordance
explains
filtration
minimized
nonsingular
scheduled
sided
wing
focuses
laboratory
lists
proposal
attraction
excitations
institute
##up
born
objectives
sky
artifacts
carefully
incomplete
inverted
##ets
differently
patients
reversal
satisfactory
turned
bootstrap
education
grammar
intra
session
updating
##ey
attitude
fewer
hemisphere
inflation
rapidity
##ki
altitude
dominates
goals
susceptible
aggregate
feasibility
leaving
meanwhile
pool
summing
sure
1989
accumulated
hawking
ito
mk
queueing
attenuation
conjunction
mathematically
me
met
optimize
polarities
quantify
separating
subsystems
wider
##der
##land
aperture
bigger
concern
frequent
tuned
utilization
ambiguity
biased
dimensionality
exploiting
logarithm
piece
spanned
##mic
bins
calls
collaboration
heliospheric
holographic
specifications
chooses
descriptors
graphical
historical
instantaneous
zhang
##ction
annihilation
asymptotics
border
linearization
thermodynamics
##il
blow
discretized
encoded
hour
refined
##ration
equatorial
european
ignored
scalability
searches
tangential
1987
constructions
eigenfunctions
gradually
neutron
schwarzschild
sep
sophisticated
standing
tracks
associate
automated
calibrated
train
##ess
##ming
approximating
automaton
bending
coordination
economy
letter
performances
predictor
##mp
authentication
deformations
encountered
flavour
fracture
glass
halo
leptons
maintained
alternatives
copies
join
pronounced
routine
##bo
grids
intended
preserved
##ard
accumulation
adiabatic
continues
epoch
facial
heterogeneity
hxr
january
optimisation
pc
zones
##ut
34
ant
checking
dividing
exception
focal
implied
retirement
separable
workers
70
boundedness
diode
diversity
synchronized
virus
visualization
argued
chapters
descriptions
gaps
homotopy
ionization
parameterization
rigorous
surprising
yang
##ties
bernoulli
mutually
nonlinearities
truncation
##ie
defects
dof
exclusive
nearby
november
october
recursively
adjust
annealing
bivariate
national
outline
posed
compactness
convention
deriving
differentiating
failures
macroscopic
repeat
superconductivity
tolerance
transfers
upward
attained
computers
displacements
impacts
rooted
cardinality
credit
entities
helps
pipeline
rough
##va
begins
bracket
carbon
cosmology
hosts
ll
proxy
your
balls
cooperation
counterpart
enters
gold
intersections
looks
75
broadening
enterprise
omit
rounds
sketch
##ff
1991
deposited
multibody
saturated
solvable
ultraviolet
avoided
spacing
spine
##mer
appropriately
grating
implication
##zed
behave
bridge
chance
delivery
modelled
persistent
possess
resolve
speedup
subtraction
##ich
antennas
apparently
creates
facets
monotonicity
pick
qd
sea
captures
hermitian
industry
schema
4d
guide
insurance
visibility
walking
letters
moved
passage
reading
careful
consistently
continuation
fractal
lo
tendency
discusses
polarisation
prototype
seek
bare
bring
feynman
intensive
liouville
multiply
nodal
personal
transaction
##ga
fragmentation
margin
vehicles
##ulate
classify
dissipative
him
iteratively
loads
multipliers
photo
##ological
live
proteins
reproduction
##ron
collapse
distinguished
filling
intersects
movements
permutations
redundancy
valence
##ide
01
hoc
khz
oxygen
##ow
##ri
addresses
asset
morphology
neuron
replacement
combines
dust
immune
pheromone
residue
switches
cancel
constrain
dotted
ns
superposition
turning
##ay
##ber
##ky
animation
balancing
disks
monotonically
tracing
achieving
hubble
semiconductor
##ology
lmis
paradigm
05
predicts
quotient
slice
##ral
agrees
averages
finitely
months
mutation
owing
suggesting
technological
priors
replication
spontaneous
symbolic
downward
expectations
influences
colored
deformed
discontinuities
fractions
guess
inserted
nice
qos
recalling
supersymmetry
voronoi
150
1986
amplifier
anomaly
car
coalition
compares
fibers
formulations
incorporating
microscopic
nested
reasonably
ultimately
400
64
adjustment
conflict
sectors
severe
ti
##out
coincidence
decided
drug
heuristics
instructions
suffer
conditioning
impedance
international
pay
ps
recursion
skin
strip
torus
##ro
admit
brackets
dose
reflections
something
spots
##ual
avoiding
humans
mask
strains
##pc
forecast
registration
relaxed
synchronous
##be
##ca
##ening
##meter
##ml
bus
exterior
multidimensional
productivity
reflecting
scatter
serves
##sm
chose
demands
drawback
names
northern
sending
stabilized
causal
child
developments
fb
fuel
indication
merging
oscillating
simplices
ahead
attracted
facet
manually
partly
rising
##ka
c2
contract
correspondingly
ever
hyper
nine
proceeds
schedules
viewing
converter
disc
hinode
intense
islands
justified
radiance
relates
student
tilt
trading
trigger
animal
confirms
hadrons
ips
southern
ss
##ver
accessible
accompanied
consuming
doping
lp
sp
termed
analysed
constitute
deflection
footpoint
hiv
holomorphic
strange
##od
a1
emerged
pso
actuators
exit
hysteresis
mcmc
randomized
rf
roles
utilizing
von
##ue
carriers
depicts
navigation
neglect
ready
runtime
wrong
applicability
compound
fluence
instabilities
repetition
transparent
vortices
##rate
bosonic
century
decompose
evolving
goods
nondecreasing
recognize
relativity
##kin
##wise
##zing
1988
elimination
held
mild
rhessi
transmit
uc
##ned
decaying
escape
july
muon
sender
unitarity
waveguide
wire
##hi
arcsec
ignore
magnitudes
pairing
topics
facility
hope
maximization
says
serious
shading
synoptic
taxation
wiener
##ip
##lation
##ol
##ric
cutting
medical
pca
simplifies
##ad
##izable
concentrate
decoding
distinction
exploration
maintaining
preserves
subgraph
##lin
annual
arrow
fft
implementing
increments
initialization
##one
apex
causing
coexistence
entity
favor
kg
monitor
pieces
positively
preprocessing
tracked
##net
55
bayes
centroid
deployed
hardy
hereafter
increasingly
neutralino
sc
solely
stay
stochastically
passed
played
primes
##sed
adapt
ansatz
compensation
convert
euvi
evaporation
exposed
inclination
interestingly
naive
rectangle
timing
unbiased
roll
swap
diagnostic
else
hall
city
compensate
compressed
deployment
emerge
inspection
permits
serial
superconductors
xml
##ical
##mo
accomplished
analog
ars
december
ge
graded
imposing
nano
wage
absorbed
accept
exciton
execute
june
shifting
##bly
blocking
damped
estimations
march
superior
ulysses
##des
coloring
dependencies
inconsistent
investigating
manager
ourselves
arrows
biology
navier
observers
offered
projector
recombination
scenes
tevatron
translational
trivially
##ni
drops
famous
likewise
reviewed
safe
tile
tumor
univariate
##iation
claimed
company
facilitate
grand
importantly
keeps
slip
trends
isothermal
learned
merge
stabilize
fragments
helpful
industrial
meridional
mse
opportunity
parallelism
poses
board
fan
homoclinic
injected
polytopes
spinor
absent
bar
breaks
checks
collider
converging
geomagnetic
occupied
permeability
predictable
proposes
restrictive
strategic
vm
wheel
##ee
##ulating
accounting
believed
crack
jointly
kerr
monotonic
nilpotent
port
pumping
selects
surprisingly
##lated
##ulation
divergent
hamilton
mpi
shot
cs
delivered
endpoints
hi
redistribution
specular
spreading
##ap
confinement
entering
february
floating
incorrect
insertion
sectional
silhouette
##em
crosses
departure
discriminant
eruptions
intersecting
platforms
plausible
specifying
stand
##atic
##oid
##scale
equator
er
establishes
fluorescence
fm
rod
snake
##ments
abundances
ants
classic
handled
heavily
inelastic
mark
propositions
riser
rna
se
shares
convexity
highlight
lorenz
minus
optically
quintessence
readers
torsional
trapping
trial
##au
##om
##un
card
instruction
joining
minkowski
team
ace
banks
cu
island
money
polyhedral
prepared
proximity
ricci
sequentially
sn
splines
##let
arm
clutch
deeper
mg
obstacle
relating
rendered
topologies
wealth
1985
allocated
collect
fair
instrumental
optics
scans
spite
##tt
bubble
dimming
id
launch
middleware
modulated
month
placement
randomness
salient
acceptance
equating
infectious
intuition
manual
pinning
visually
vorticity
increment
monomial
nonlocal
opposed
periodically
pseudoscalar
retrieved
style
toroidal
vibrations
##ens
##io
##sion
5d
claims
evaluations
guided
liu
merely
onboard
outward
pages
screening
tcp
compatibility
generations
hardly
mac
signed
spins
violated
##pass
acquisition
lived
ls
preferences
reproduced
schur
translate
##ising
##way
37
bond
correctness
electrode
insights
lee
markets
nuclei
preference
traces
##mann
arcade
blade
condensate
dates
divisor
ease
emitting
foot
h1
indicators
tiles
##ev
##mi
abstraction
blood
budget
catalog
extracting
prefix
terminology
trying
unknowns
volumes
##gram
##ncy
48
breakdown
carries
characterizing
enabling
establishing
million
prominent
returned
served
smoothly
systematically
weyl
accretion
activated
compounds
decoupling
knowing
paid
photometric
rings
command
initiated
irregular
latest
reversed
reviews
ridge
rms
specifies
worked
##king
asymmetries
backgrounds
cdf
circulation
dead
histograms
opening
perception
subtracting
summarizes
uncorrelated
##band
38
adds
coronagraph
exclude
gates
grown
hausdorff
hazard
makespan
stops
tried
##sh
42
becoming
pb
pdfs
sudden
##go
##graphic
##hs
1980
automorphism
curved
galaxies
interpretations
spectrometer
tags
trained
translates
tuples
##ving
busy
contents
covariances
geometrically
gut
modifying
necessity
protection
spent
surrogate
ultra
##ks
ejections
epidemic
heliosphere
indistinguishable
rejection
slab
spaced
subscript
walls
##ural
cep
ciphertext
databases
dominate
home
positioning
quantitatively
resistivity
vms
##ious
equalities
lattices
opacity
paragraph
slave
standards
forest
grain
na
neglecting
rotated
streaming
600
adjusting
advances
asked
assembly
controllability
fading
incremental
operates
suppress
valuable
##sky
ago
bijection
instants
mcs
ultimate
##ncies
axioms
bilateral
boltzmann
counterparts
doublet
employment
femtosecond
normality
planetary
radar
saving
spectroscopic
65
alternating
assigning
elsewhere
flip
hyperchaotic
rhic
spatio
stresses
##ker
afterwards
brain
cw
facies
fluids
fragment
imager
ontology
similarities
unable
correspondences
incentive
isospin
planets
relic
remained
resonator
simulating
strongest
verifies
##als
##ert
##ir
##map
aid
animals
contacts
firing
haptic
latitudinal
ne
pi
tries
171
99
atlas
cohomology
crossover
decade
divergences
doubling
helioseismic
ni
sciences
sentence
sleep
transit
translated
##df
##ti
##ture
congestion
empirically
enabled
ferromagnetic
mle
pa
positivity
safety
comments
contexts
equipment
essence
familiar
freely
insert
layout
mirrors
orientations
planet
quenching
wait
##mm
##ny
##uting
##zation
brings
broadcast
dramatically
ensuring
forecasting
iterated
ofdm
polyhedron
predicting
##wa
addressing
conditioned
cyclotron
exogenous
galactic
klein
markers
monthly
numerator
patient
sized
tensors
wants
##fc
##ws
analyse
answers
compensated
cusp
fwhm
iron
reservoir
society
triggered
varieties
44
astrophysical
battery
competing
diffeomorphism
emergent
fov
integrator
junctions
labour
privacy
qds
1982
arriving
couples
indexing
irradiation
nonetheless
outperforms
##off
##ort
aimed
alphabet
arranged
endpoint
fill
fisher
illustrative
imf
loaded
muscle
pareto
sees
shallow
stratified
transportation
xrt
##ak
brought
came
clients
cor1
degeneracy
emerges
expressing
noncommutative
normals
stationarity
stretching
voting
##pt
##ses
durations
ending
foreground
greatest
impurity
reactor
redshift
screen
stimulus
subjected
successively
tens
unification
##sa
##sis
alpha
arrives
bvp
constitutes
dispersive
distortions
divides
dummy
eruptive
failed
getting
grey
macro
projects
##izer
##time
bars
chirality
der
dilaton
manage
moduli
partons
probable
reward
spending
transcription
unlikely
viral
##sen
a2
asynchronous
burden
chamber
floor
heated
mn
occurrences
pointwise
##nn
adopting
classifiers
clean
codimension
connects
disparity
engines
evolved
hit
quad
regulation
substituted
translations
accommodate
descent
erupting
leg
lighting
presenting
regulatory
repeating
spiral
##ill
##op
##use
april
condensation
cosine
explanatory
gradual
individually
smith
susceptibility
tells
unparticle
##ory
avoids
coxeter
decoupled
discounted
dropped
eigenfunction
era
hyperplanes
mw
permanent
proceeding
tissue
touch
##all
##cal
##valent
ac
aggregated
automata
cds
contamination
doubly
eliminating
favorable
referring
register
simplifying
symplectic
transforming
##field
##ok
affecting
bipolar
climate
dealt
newtonian
nonoscillatory
oxide
routes
spherically
subtracted
thresholding
##no
##pa
##rm
constituent
encrypted
fish
indexes
magneto
meta
prefer
residues
slot
snr
sorted
spurious
urban
validate
##art
##space
43
achievable
american
bearing
fifth
hundreds
renewal
reversible
sinusoidal
slices
antisymmetric
comment
commitment
deceleration
labeling
nowadays
push
ranked
regge
skills
transversal
##ations
##nts
august
branes
cap
cipher
concluding
fd
generalizes
gibbs
lock
manipulation
optimally
saliency
solvability
##ans
##body
##co
##ected
1984
clockwise
countable
emphasized
grouped
heliocentric
household
insensitive
locking
nnlo
predefined
propagates
seismic
selective
stroke
subgroups
tape
trials
##cing
##ish
##rating
120
characterizes
cryptographic
divisible
foreign
google
ideally
living
maximizes
mismatch
pest
predictors
resultant
stays
##ade
endowed
examination
examining
friedmann
lifetimes
maintenance
mix
stations
ambiguous
disappear
drives
gained
legs
movie
originate
render
save
supervised
##10
##ai
##dp
##fe
##gh
##izes
##ode
##uate
195
behaviours
compliance
cubes
decentralized
goodness
holding
mpc
playing
poorly
tiling
##nov
02
41
cmb
hundred
kolmogorov
raised
assigns
communicate
culture
disorder
dp
eqn
gdp
lu
poly
repeatedly
termination
terrestrial
textures
unconstrained
##graph
attacker
concurrent
facilities
insufficient
integrand
kinetics
lift
lose
maintains
peers
reactive
remarkably
school
##ain
##ates
##pe
autocorrelation
boost
broader
casimir
confusion
converse
dispersal
diverse
excluding
genome
ideals
knows
lightest
malicious
obstacles
plants
retrieve
sine
tv
##ha
##tone
##ys
800
cool
eclipse
feed
harder
hopping
hydrodynamic
intercept
rad
riemannian
##ential
##tory
304
advection
controllable
ergodic
exhibited
interests
isolation
preparation
relying
saw
synthesized
theta
##vable
04
1981
accelerate
arrivals
crowd
gaas
ill
integrability
neighbourhood
remember
whatever
whilst
##ists
arbitrage
belt
charm
decrement
eastern
geometries
heliographic
lifshitz
plain
recommended
thing
##ians
comprises
conditionally
contributing
distant
exhaustive
heavier
obey
opinion
optimizing
outliers
router
st
tolerant
algorithmic
assets
carrington
centralized
cognitive
corners
corporate
dft
employs
homogeneity
irrelevant
java
locate
multicast
progressively
sheets
shortly
tails
transmitter
##res
cable
ct
encounter
gross
manipulator
marker
originating
parents
scalable
segmented
sw
##fi
##ions
06
constructs
impulses
longest
multimedia
noether
normalised
perceived
templates
traced
undergo
undirected
##by
39
barb
department
meeting
morphism
ocean
partner
plume
porous
profits
ribbons
tm
vessel
##ung
amplification
cited
constructive
cultural
discrimination
ecliptic
fir
homomorphism
ph
proliferation
sem
slopes
symmetrical
##ac
##ack
##ered
articles
launched
nn
permittivity
routers
scheduler
tf
vapor
vi
visit
##ore
1983
absorbing
coded
galaxy
gb
innovations
kronecker
la
mounted
odes
propagators
regulated
riccati
##ching
hermite
inclined
inventory
maturity
resolutions
stretch
undergoes
vast
##ace
##ule
##using
dominating
fulfill
legendre
mills
observes
overlay
regional
registered
wavenumber
western
##he
##ining
##onic
##ox
54
approaching
biases
bone
cancer
converters
intervention
iso
noticing
progressive
valve
##els
##magnetic
##nes
##ski
absorber
bipartite
experienced
frameworks
generalizations
installed
organisation
pdes
petri
quantized
skewness
zebra
##lt
##teen
##ten
250
am
auto
consumed
exploring
faint
fortunately
gpus
linking
locked
monomials
rescaling
specially
validated
##uated
180
adversaries
circumstances
gpd
healthy
identifies
lsp
polygonal
problematic
subsections
cash
compressor
ignoring
kp
ma
radially
seeing
shaft
strokes
transitive
##ini
adjacency
aerodynamic
cc
electronics
helium
hypergeometric
interchange
kinematical
noticeable
occlusion
quick
squark
squarks
supremum
volumetric
##ail
##ound
##vs
covariate
dimmings
dominance
finish
granular
injective
interplay
mediated
originates
predicate
stick
verifying
conducting
diffractive
electro
evidently
plug
quadrant
quaternion
rejected
sentences
shop
substrates
##metric
##most
exotic
foam
german
hitting
packing
provider
regularly
resistant
ribbon
sot
stores
transpose
traps
women
08
approximates
books
buffers
clarify
computable
conceptual
deformable
deliver
ellipse
emphasis
fidelity
interpolated
lin
story
trains
##over
##stic
##uring
bottleneck
cdm
depths
fabrication
finer
inherently
risks
sde
##aries
##ig
##rf
46
56
bytes
compromise
fiscal
interconnection
percolation
reflectivity
roughness
stripes
svm
##act
##flow
##nm
##ran
compensator
ice
penetration
quantile
tractable
trusted
##ple
clique
collecting
crossed
fire
indirectly
ising
l1
mining
oil
stem
suitably
survive
##tch
acquire
clarity
communities
drastically
heteroclinic
hurwitz
infeasible
manufacturing
merged
mod
noises
outflow
scientists
stringent
voltages
##logy
abc
accelerating
bs
comparative
decompositions
discussing
grains
illuminated
incorporates
interpolating
jordan
plates
polymer
recording
##ues
accounted
calculates
derivations
exceeding
falling
finance
incompressible
invasion
reconstructions
retained
unusual
verifier
##ges
##ivities
##of
##ust
began
capacitance
dem
detectable
disappears
harvesting
isometry
overlying
pl
rayleigh
roi
situated
thousands
viable
##ded
##dic
##ometric
##side
##und
arch
cft
chart
forth
genus
horizons
networking
prominences
specialized
alignments
chap
conductance
disadvantage
exploits
locality
locus
probes
propagated
reciprocal
secchi
supercritical
swing
virtually
voters
wavelets
##bing
##ces
##set
audio
distributional
ellipsoid
hessian
informative
initialized
mixtures
news
reliably
restricting
sorting
tableau
wedge
##east
##ins
##per
##sr
accelerations
ap
benchmarks
congruent
die
elevation
elliptical
encode
frw
positron
precursor
predators
primal
quadrature
reject
sausage
terminals
unilateral
visited
##ford
axiom
chaplygin
consumer
dip
gr
heart
implements
minimizer
orthogonality
rarely
superconductor
surge
toolbox
yellow
1979
47
aiming
amplified
cooled
explaining
fed
grade
photonic
prevents
revenues
sir
torques
wires
##ened
##rated
52
capturing
cast
commodity
container
contributed
cope
organisms
originated
pions
plastic
raises
rigidity
splits
##axial
##di
##hed
##my
accesses
blobs
corrupted
excitons
odds
plaintext
posteriori
relational
reputation
somehow
subsurface
suffers
upstream
##50
##cted
##ree
##sts
##tors
##tz
avoidance
discarded
exceptional
gear
nd
notably
plans
proposals
windup
##ifies
##ux
bps
differentiate
digits
dis
discover
discrepancies
imagine
operated
please
replica
retain
robustly
spirit
surrounded
##lf
##mb
##og
##ose
baryons
brightening
chua
costly
faulty
geodesics
highlighted
intelligence
interferometer
isotropy
metals
offspring
payload
predominantly
providers
rolling
rotate
telescopes
till
##kov
batches
broadband
demanding
ensured
ia
marks
meets
mis
qed
relay
subcritical
##ators
##fied
##ics
##mes
128
1978
dissimilarity
drawbacks
ejection
maximized
meridian
pp
provision
rises
shapley
triangulations
vote
##ibly
##lis
abrupt
assessed
clinical
h2
highlights
hypersurface
imposes
inversely
meter
moore
persons
pumped
reynolds
sa
standardized
superscript
tunable
walks
##rov
##tle
##uing
alice
alternate
builds
collaborative
compactly
fpga
kdv
kriging
pathway
pd
penalized
pull
quantified
searched
solvers
subtle
syntax
tackle
tell
umbral
##ell
alter
anything
azimuth
conduct
conjectured
corpus
crossings
diagnosis
electrostatic
ilc
integrity
managed
margins
political
presumably
transmitting
##ane
##her
##metry
##si
algebraically
beneficial
brdf
copula
diffusivity
elaborate
identifier
leptonic
maybe
mr
nonthermal
peculiar
resembles
rewriting
september
volterra
##dm
##encies
##hn
##imeter
##late
##ography
49
avalanche
distinguishing
elegant
heisenberg
informed
justify
manufacturer
moon
partners
periodicities
relax
rescaled
savings
storing
sumer
surveys
timescale
toric
##ann
##ii
##itz
##mal
##ther
##ves
bifurcating
flash
fronts
header
inefficient
ingredient
invoked
music
ours
penumbra
regularized
renormalized
unclear
vaccination
workflow
##bm
##ced
clifford
crs
discount
enforce
explosion
kk
mercury
methodologies
nets
poloidal
skill
wigner
##ase
##bel
##lla
aids
categorical
clustered
decline
diffusive
dofs
fused
got
hellman
nc
nt
p2p
permit
stems
unexpected
yr
accepts
consisted
exclusively
phenomenology
quoted
rdf
reply
sparsity
trait
treating
votes
##gm
##ham
##pic
03
attains
differing
equivariant
exchanged
expenditure
intel
invisible
lep
lifting
participation
prescription
qp
robotic
stratification
thrust
treatments
whence
yielded
##li
##stein
##ules
##work
2013
actuation
adequately
beat
bose
bp
btf
chargino
cohen
ex
excessive
exhibiting
fastest
frobenius
interacts
lighter
mb
miss
neighborhoods
notable
os
payoffs
pollution
respond
sessions
shower
supplied
unobserved
##60
##ole
58
anomalies
arrangements
cms
decides
earliest
extrapolated
functionalities
iid
man
spectrograph
summarizing
traditionally
transmissions
##ever
##ncing
##nr
##our
##rk
##ters
##tivity
barbs
belief
derives
expert
helioseismology
mentioning
microscopy
stocks
striking
tr
##ency
##ul
85
actuated
albeit
counted
deviate
disappearance
eikonal
gordon
governments
henceforth
killing
manifest
milp
p1
pauli
polynomially
registers
##graphy
##nding
##vi
07
1975
1976
53
bob
chi
collections
cor2
cuprates
deletion
galerkin
locomotion
obeys
office
optic
provisioning
radon
reductions
returning
twenty
##ances
##duction
1970
companies
downstream
exclusion
experiences
layered
placing
publication
requested
rgb
satellites
seeking
tiny
utilizes
wings
yb
##cd
##ep
amb
bezier
conveniently
develops
drivers
ejecta
irrespective
manipulations
mimic
ocp
orbitals
probing
tab
tailed
talk
week
##lets
##ometry
anymore
c3
charmonium
constitutive
crystalline
cuda
expands
morphological
nonholonomic
oblique
ranks
synchrony
transients
##bed
##gan
##ify
##ura
256
ascending
attain
behavioral
cg
copper
enlarged
ensembles
executing
fdi
giant
gp
grouping
inductor
invalid
oblivious
pilot
plasmon
silver
speaker
temporary
witness
##odal
##que
111
anova
associative
ba
censoring
conference
dropping
enumeration
fulfills
gribov
hill
labelled
lane
motivates
prevalence
pulsations
sturm
summed
##lating
##med
##rant
compiler
descending
effector
endemic
gabor
gaugino
handwritten
merit
metallicity
missions
negatively
participating
poset
pseudorandom
pt
pyramid
realizing
runge
umbra
upnp
wu
##30
##inal
##wn
51
a3
altogether
bipole
entanglement
finished
germany
graviton
inaccurate
intelligent
inversions
metadata
movies
partonic
publications
stopped
unnecessary
unstructured
vertically
zno
##ike
##lly
##tate
##ved
adhesion
antiferromagnetic
ao
betti
blocked
capita
centred
comb
ecological
frechet
handwriting
isolate
ladder
meant
monitored
prone
qubit
ram
refine
scoring
signaling
terminates
##bit
##cate
##pm
allowable
bcs
bell
bfkl
bremsstrahlung
burning
commutation
forecasts
gronwall
hits
inclusions
innovation
kutta
manipulated
mx
plugging
polyhedra
ppt
realizes
superpotential
suspension
whereby
1974
acyclic
cryptography
diagnostics
diagonals
drawings
entrance
fabricated
intend
pil
plasmas
schauder
slots
tomography
transistor
universality
unsigned
##board
##dity
##ex
##particle
abilities
affinity
albedo
bic
bonds
declining
deleted
dwell
educational
eigen
eis
experts
gluino
linewidth
microarray
mp
multiplications
quarter
shooting
skewed
won
##ars
##ht
##ured
butterfly
cohort
comprising
digit
distorted
doublets
drifting
dwt
eigenstates
expense
expresses
fibre
generically
interconnected
nb
proportions
raise
representatives
repulsive
resolvent
rip
scanned
##ass
##ko
##lock
##oke
##omy
advantageous
blob
crisis
discriminative
gyrotriangle
investor
nephron
opportunities
plateau
polarizations
pulsed
semimartingale
wmap
worker
worm
##ages
##morphic
##ugh
##utable
1977
96
ab
autoregressive
byte
generalised
hint
iris
knot
passivity
payment
reform
schwarz
separates
setups
shadowing
shaping
steering
temporally
##bp
##den
##form
##ice
##layer
##lines
##ome
##stable
##ush
##utive
##wt
amongst
bag
characterised
diameters
ds
eliminates
fc
guidance
helical
ingredients
keywords
majorana
refraction
removes
sigma
snapshots
appealing
bloch
demonstration
epipolar
gs
hmms
inflationary
irt
older
##points
##tal
110
arms
axion
biometric
bump
cavities
cities
forbidden
organising
ota
packages
rigorously
sales
submitted
synchronize
videos
##cy
##ites
##tein
09
59
62
ages
commute
constituents
continuing
daes
diamond
goldstone
ionosphere
marine
mediation
minimally
perceptual
pioneering
pivot
posedness
shaded
spans
wavefront
##cm
##iated
##lies
##like
##lle
cartan
deciding
men
semilinear
sift
spr
unconditional
united
voxel
##hl
##ient
##tr
##uent
assignments
bundles
calcium
catalogue
commuting
consumers
cox
drifts
equalization
gps
lc
mature
mrna
normalizing
preferable
psf
reproducing
streamers
un
ve
zeta
##cher
##table
98
causality
compartment
demonstrating
diverges
editing
efficiencies
enclosed
gender
guiding
insulator
jumping
krasovskii
loses
networked
numbered
pressures
radiated
schematic
sought
viewpoints
visualize
winding
##acy
##ature
##ined
##ix
##sonic
backstepping
cues
imbalance
imperfect
inductive
lagged
lh
ocr
opens
rain
seminal
##pl
##row
##uctive
##uous
##vector
57
actively
afm
assessing
disconnected
hemispheres
lab
mas
microscope
nucleation
portions
reproduces
rsa
severely
snapshot
sxr
therapy
variogram
viscoelastic
warping
waveform
##40
##cc
##iate
##lic
##unk
##wski
ag
c1
decryption
di
discriminate
dry
enhancements
expects
facilitates
infimum
normalize
offline
parallelization
pathogen
pore
ropes
spotting
stressed
subalgebra
supplementary
travelling
trip
##ab
##abilities
##ale
##ams
##aw
##dl
##iness
##lo
##shed
blind
condensed
domestic
extrinsic
hands
households
occupation
passband
pm
swimming
yes
##cent
##izability
##ries
##uck
94
buy
capacities
contaminant
guessing
hcs
hr
hydraulic
logarithms
lowering
mathematicians
midpoint
oscillate
premium
semidefinite
sensitivities
soil
transactions
##cle
##group
##hing
##rch
##une
alcohol
bellman
ckm
colony
complements
conventions
cubical
deadline
determinants
devised
evenly
federal
gathered
genotype
lastly
looked
lots
opened
pet
presently
quadrupole
rear
thorough
violations
walker
##ao
##arity
##bert
##get
##ght
##iss
##ney
##ution
attracting
bernstein
elongation
everything
exchanges
fat
feel
hl
invoking
metabolic
offsets
paradoxical
professor
robotics
stating
svd
targeted
##12
##fa
##ick
##ya
68
accomplish
actuarial
arrived
blades
capacitor
chemistry
clp
coercive
contracts
deeply
earnings
entails
foundation
gases
genuine
granulation
kim
magnetically
nanowire
nanowires
p2
participant
pfss
pqcd
preservation
recommendation
shed
simulates
springs
stm
token
truly
vibrational
violate
voter
##ctor
##een
##yer
bidirectional
chord
complexities
compliant
comprise
d3
delaunay
dips
dramatic
economics
explanations
exposition
flowing
impurities
initiation
integrations
logics
pipe
planned
pointer
quartic
rotates
schmidt
sequencing
subscripts
tagged
##ba
##hy
##pace
##pi
##ronic
##tions
##ua
72
bid
colliders
definitely
diquark
disadvantages
electricity
forwarding
hedging
malaria
motivate
narrower
persist
printed
rc
rhs
rs
sketched
skip
smoother
speculative
summand
usefulness
weierstrass
##book
##ctive
##han
##harmonic
##ily
##spect
##type
dissipated
duty
hardness
house
io
joined
mrf
pr
resistive
reuse
semiconductors
stabilizable
thesis
unaffected
undesirable
##lex
##structure
##urable
##wards
bijective
bragg
brevity
correcting
distinguishes
imagery
isotope
jensen
lookup
ordinal
projecting
repetitive
replaces
signing
stabilizes
##ading
##hip
##ings
##nic
bacteria
blending
bonnet
completing
compositions
compressive
comprised
congruence
conjugation
detuning
ieee
liquidity
magnetized
multiplicities
ongoing
parseval
plage
progression
replicas
secular
servo
singleton
tb
thinking
thomson
tightly
tune
unrealistic
weber
writes
##air
##back
##dis
##do
##end
##ises
##its
##length
##py
##tance
adaptively
answered
assembled
chs
closing
decoder
degraded
detects
efficacy
enforcement
exon
extrapolations
geo
gram
harris
investigates
l2
participate
positioned
silhouettes
spontaneously
stripe
suboptimal
sweep
uniformity
zeroth
##erative
##ima
##imetric
##ude
##vo
001
basin
depletion
fly
gm
hankel
indications
kapitsa
knots
mach
melting
nls
organizations
pathways
peaked
perspectives
phonons
piezoelectric
precedence
retailer
ripple
routines
satisfaction
seeds
separatrix
shannon
suggestion
thousand
vocabulary
waveguides
zeeman
zonal
##bb
##mission
advertising
aes
censored
coated
concatenation
conserving
coordinated
delivers
exploitation
gesture
interpolate
joins
le
manipulate
misses
nanoparticle
native
receivers
regards
tagging
tau
tightness
trilinear
ubiquitous
vectorial
##45
##ering
##itive
##oe
##orated
##ser
antiquark
avalanches
commutes
consume
dimer
embeddings
enormous
entered
ew
explosive
favored
friends
hypothetical
landscape
monogenic
phone
quote
saying
steep
superimposed
td
trigonometric
triples
unperturbed
##ched
##cts
##cular
##hz
##iling
##ob
##oy
abel
accessed
brightenings
complementarity
condensates
deviates
garch
hiding
incentives
land
leray
outperform
paradox
parker
payments
pictures
publicly
replicated
restricts
safely
stimulated
topologically
transported
trapdoor
uav
##ano
##br
##ci
##meters
##rable
##sian
##su
caching
ci
constraining
dissociation
electrically
herein
m2
mt
occasionally
organism
overshoot
paired
react
ruled
schwinger
shadows
simplifications
stimuli
subtract
tank
wake
wear
##eg
##ez
##here
##ony
##ou
##ously
##thetic
##weight
700
altered
artifact
attempted
backbone
broadly
buoyancy
chebyshev
depict
draws
epochs
eulerian
evaluates
f1
happened
kirchhoff
lossy
ports
remind
resummation
rmse
semiclassical
stabilizer
stray
unwanted
wells
workloads
yan
##ches
##logies
##minate
##sive
aic
collisional
compactification
cpus
english
finishes
ly
missed
modality
photos
quasilinear
recovers
silica
steel
stretched
virtualization
watson
yearly
##ake
##ank
##bc
##unt
adapting
concurrently
foraging
inhomogeneity
lags
magnetosphere
noteworthy
positives
prf
rbf
recovering
rectangles
resolving
script
sigmoid
signer
spinors
spreads
street
subproblem
supergravity
sustained
tetrahedron
thereafter
thermodynamical
##active
##anov
##cker
##eration
##gen
##ils
##mc
##omic
##port
aliasing
annulus
bold
canceled
ce
converting
cv
delete
dependences
displaced
handles
hh
hyperfine
invert
leftmost
loosely
multinomial
nasa
nlfff
offering
oscillates
physicists
researches
restoration
seesaw
stiff
twelve
vev
##ssing
##tating
66
architectural
cd
concavity
discipline
distribute
emotions
evolutions
facing
faculae
hough
inferences
kahler
martingales
motors
notes
pedestrian
saved
subjective
surjective
viterbi
worthwhile
yag
##ativity
##case
##ication
##ices
##jet
##lm
##nch
1973
conceptually
faced
female
histories
hydrostatic
ie
inactive
informal
intrinsically
ionized
jitter
justification
libraries
lyman
m1
martin
mountain
parking
spacetimes
terminate
tidal
##fication
##ire
##matic
##ogenic
##ris
##uit
##ulated
adult
commands
contradicting
corruption
distinctive
europe
fubini
iterating
modalities
monograph
reconnected
reissner
revised
rg
rounding
sixth
technically
weeks
##ae
##pd
##tm
allele
anticipated
borders
clause
coset
cylinders
dilepton
employees
exciting
folding
himself
internally
interpreting
linkage
lognormal
monochromatic
optimizations
proportionality
prototypes
respects
revealing
semicontinuous
sharply
splicing
tear
tied
widespread
##kf
##kii
##lattice
##lon
##ride
##urs
anderson
annotation
axisymmetric
barriers
biochemical
compose
eve
institutional
iterate
lenses
lexicon
longitudes
loose
manuscript
meters
nmpc
nucleons
octree
pan
protected
prover
pwm
reservation
resetting
sat
shrinkage
simulators
tetraquark
thinning
violates
wrote
##20
##dal
##ean
##lov
##nf
##oned
##rine
##rupt
##take
##uc
abnormal
align
cmssm
compiled
compressible
conductive
conjugacy
contaminated
contextual
deleting
diseases
drugs
ejected
enforced
executes
flutter
frontier
installation
irreversible
modifies
neutralinos
outflows
permitted
punishment
settling
thicknesses
##gb
##ik
##ility
##ives
##litz
##ographic
##oom
##orm
##plane
1972
academy
allocations
br
cantilever
coin
communicating
designated
developers
extraordinary
flavors
grazing
lamp
manipulators
popularity
qgp
rearranging
reproductive
resistor
tem
tetrad
tier
triggering
##gle
##gnetism
##gonal
##ovich
##plot
74
achievement
anyway
burgers
consumes
damper
dictionary
dipoles
frm
gather
heads
hecke
horizontally
hump
issued
lasso
linguistic
maximally
pe
pearson
penrose
pruning
quiescent
tachocline
##48
##asing
##ec
##ition
##load
##nal
##tte
2hdm
ancf
assertions
assisted
b1
buildings
charmed
companion
feedforward
feet
forthcoming
grained
haar
incoherent
msugra
notational
recognizing
reflexive
resort
sd
sectorial
stepping
textual
traversal
twisting
##current
##phase
##rl
##rn
##sible
##tl
2nd
acid
aluminum
benchmarking
centrality
comparatively
contiguous
demographic
encodes
granularity
h3
hera
inas
lda
matters
mini
multiresolution
ontologies
picked
portfolios
puts
risky
sensible
sl
straightforwardly
submanifold
unreliable
valuation
wanted
website
##cial
##enberg
##erg
##gate
##iction
##iles
##lar
125
bear
coronagraphs
cumulants
custom
depression
documented
ecm
election
enhances
hubbard
illustrating
infections
inset
literatures
male
masking
nitrogen
portrait
primordial
productive
quarkonium
sh
shells
speak
spectrally
strips
structuring
subinterval
superfluid
syntactic
tie
tracker
tunnel
unsteady
unsupervised
wherein
##ach
##coming
##feld
##ips
##omatic
##ub
160
1971
67
alloy
analogues
chinese
cloth
coil
commutator
compton
dispersed
displaying
equidistant
flag
fresnel
gpds
hashing
immunity
invoke
kaon
lms
multicore
mv
pro
recoil
renders
ridges
sio
supplemented
tachyonic
##eon
##hop
##pp
##uity
##version
adjustments
analyzes
answering
api
beliefs
bh
biologically
brown
clipping
clutter
coalitions
diodes
doubt
fock
hadamard
imputation
inhomogeneities
insignificant
integrators
minimizers
receptor
schwartz
stein
subsidy
tailored
turnover
upwards
##dit
##ement
##ett
##ew
##hill
##nia
##rator
##uation
512
ambiguities
benign
cpt
dvcs
fertility
fractures
generalizing
hypergraph
intensively
inverting
johnson
moderately
modest
monoid
nondeterministic
nw
omitting
pacman
rao
recommend
renormalizable
rooms
sensory
sufficiency
tariff
visits
##ang
##dation
##fiable
##ination
##itable
##uid
##ulator
adjustable
allocate
brillouin
coarser
da
discharge
diverge
equity
eyes
gestures
grad
ho
investments
ionic
metastable
monopole
multiscale
nes
novelty
pipelined
puzzle
rabi
regulate
replicate
sapphire
sizable
subband
symmetrically
twofold
##ag
alarm
aside
cbps
contrasts
converts
critically
disagreement
divisors
dos
emissivity
engineers
enhancing
es
feeding
fem
gaze
geographical
ginzburg
guidelines
hypercube
improper
isometric
logit
manifestation
marginally
mobius
neighbouring
opo
rounded
slack
slepton
ssi
stieltjes
storms
suffice
tri
unrelated
##ath
##cl
##entation
##grade
##ina
##lity
##nating
##nder
##osition
##uates
1960
1968
accepting
adders
approached
associations
auroral
brighter
campaign
china
clip
compete
counterclockwise
differentiated
ended
evanescent
examinees
executions
godel
integro
pedestrians
planner
rating
rge
scintillation
summands
susim
undergoing
vaccine
valley
worlds
##64
##96
##dy
##essing
##iest
##inated
##lator
##nge
##rp
accelerator
analysing
aschwanden
behaved
cart
coexist
constrains
debt
digraph
drain
foregoing
hb
ibm
inducing
intermittent
lasting
lr
marking
maunder
mdp
polling
protect
qpp
regulator
riesz
seemingly
sheath
subproblems
surprise
tedious
theme
treats
voxels
##dos
##essor
##logical
##olar
##stry
##tering
##uv
##verse
##we
1965
77
802
a4
accompanying
aging
arguing
bang
birds
cayley
constantly
institutions
intriguing
japan
lacking
landmarks
lets
minority
mot
nicely
nmr
nonterminal
overlaps
perimeter
plasmoid
rb
reconfiguration
redefinition
rods
semiparametric
skilled
trailing
yaw
##are
##bell
##box
##fer
##ilis
##lling
##nik
##orts
##ots
##sal
##sampled
##sp
##ula
aided
assimilation
backwards
bandwidths
brute
clips
conflicts
csi
duffing
frictional
genotypes
graphically
gt
huang
idealized
idempotent
involution
lm
losing
nondegenerate
parsing
pencil
pin
plumes
precipitation
probed
pushed
quasinormal
season
sin
surveillance
thoroughly
turbine
undertaken
vegf
##dd
##dies
##gativity
##kes
##link
##mechanical
##mv
##ogram
##top
anchor
bacterial
bead
conflicting
dislocations
emit
encoder
finsler
fixes
follower
friendly
gpc
helicopter
homologous
hops
ind
interruption
irradiated
keyword
likelihoods
lives
lumped
lunar
mgo
muller
multiples
muons
occupy
predation
replications
semileptonic
sf
shrinking
synchrotron
terrain
unambiguous
willing
##ager
##ghz
##lp
##mers
##mination
##ops
##oring
##pose
##ption
##ret
##stability
##tical
##yers
archive
asks
assure
bipoles
calibrate
collage
com
converged
cumulant
defender
dps
employee
endogenous
entertainment
faraday
generative
gon
grassmann
guo
incorporation
kloe
landing
lorentzian
millions
multipath
npr
occupancy
picking
pos
preventing
rearrangement
repulsion
respiratory
rfid
rt
submatrix
surplus
sxt
tractability
triplets
unambiguously
unbalanced
underactuated
visualized
zn
##ads
##aos
##bd
##graphs
##ivable
##lization
##mt
##tates
##za
63
amino
apparatus
attachment
chromosome
classifying
colliding
collocation
critic
crude
debate
detections
elongated
exponentiations
formalized
forwards
gmm
gratings
irs
latin
littlewood
magic
miner
mott
numeric
overlapped
palm
parentheses
polarimetric
reformulated
restoring
schematically
thz
toy
tsi
upflows
wl
zhou
##11
##ahn
##ei
##ias
##icity
##nds
##ood
##rr
##td
##urn
##ury
annotated
b2
baker
banking
belle
blast
bounce
calling
cga
committee
conjugated
coriolis
crystallographic
dislocation
emotional
encounters
exons
fairness
fokker
frozen
guard
hu
indecomposable
lax
machinery
metropolis
morse
mutations
promote
rail
roberts
seriously
uwb
##cence
##center
##estimation
##ink
##itis
##oration
##rise
##sb
##skii
##ud
1a
1st
abundant
annealed
asserts
cl
colours
dopant
doubled
enriched
eqns
exceptions
excludes
geological
granules
indoor
managing
meyer
nose
nurbs
predicates
raising
sex
sheared
spt
summarised
surgery
unresolved
ward
##ato
##bi
##eous
##lc
##mf
##mological
##partition
##static
actors
admission
alleviate
announced
chromosomes
correlator
cumbersome
door
downloaded
eigenmodes
emulates
ff
financing
flatness
inductively
inhibition
newman
nondimensional
oh
overwhelming
parse
pch
preimage
quadrilateral
quantification
reporting
retaining
rock
scholes
semigroups
spend
sps
vital
wishes
xu
##14
##erated
##fall
##fit
##imise
##ino
##ometer
##ored
##outs
##qr
##ster
##tability
130
140
92
aggressive
cancels
certificate
circulant
composing
configured
decisive
decouple
designer
df
dilation
drell
evasion
floquet
functor
gyrovector
incurred
instrumentation
leverage
ols
password
prepare
rationale
remarked
sampler
serving
sharpness
superfield
trick
viz
voice
##ani
##arily
##beck
##ea
##oa
##oc
##ong
##rial
##rities
##so
61
69
76
amazon
caputo
chattering
cmos
conic
corollaries
curvatures
decoherence
differentially
dressed
extracts
galois
gyrobarycentric
ic
inflow
multichannel
nonincreasing
parametrized
pores
reachable
relaxing
rig
robinson
slf
sorce
stereoscopic
stoichiometric
strike
substitutions
temporarily
toeplitz
twin
usa
violent
warped
xii
##action
##dt
##hin
##min
##nated
##phone
##uct
##zo
adopts
auction
bekenstein
contradict
districts
dl
dns
exceeded
fictitious
functioning
futures
grobner
identifiability
justifies
ltrm
michelson
minimax
mouse
platinum
programmer
restore
seemed
separator
transferring
unemployment
viii
yohkoh
##aft
##bola
##cribed
##etic
##ib
##lab
##nation
##path
##rw
##sumed
##tter
##yn
78
adverse
analyticity
astronomical
beneath
buckling
catalytic
chips
colleagues
concise
correlate
densely
dim
discard
emigration
extremum
fp
hjb
homeomorphism
http
identifiers
king
lotka
meromorphic
mwo
nucleotide
parser
phylogenetic
piston
qs
quadratically
receptors
restored
roc
separations
slide
solids
storm
subtree
zeroes
##class
##ef
##ere
##hole
##ica
##inate
##lson
##ost
##position
##ures
2b
altitudes
articulated
authority
coating
commit
compartments
cor
degrade
disciplines
exercises
factorized
fr
gravitation
gravitino
hydrodynamics
inverses
lanes
lesser
nephrons
orbifold
packed
park
pol
preliminaries
print
prism
quorum
rights
salary
smale
subgraphs
tackled
triangulated
uk
unphysical
vsm
xor
##ahedron
##atory
##forms
##inating
##key
##kian
##lent
##sk
##solution
##stream
##try
##uffle
##uning
##xt
1024
2a
aerial
af
aggregates
beside
bf
bsp
cascading
centrally
cir
classically
damaged
diffie
electrodynamics
enzyme
favors
formats
fragmented
graphic
hamming
hd
heliostat
initialize
mds
night
nuisance
nutrient
observatories
optional
reconstructing
reflective
softening
supermartingale
supernova
timetabling
travels
unfolding
unimodular
unobservable
##can
##cting
##iable
##ides
##metrization
##non
##onent
##pies
##site
##trization
##utory
##wal
240
81
acquires
authenticated
cables
cent
cheng
cooperate
flame
freeze
fundamentally
gong
heusler
initiate
lte
mapreduce
masks
minimisation
nambu
origins
owner
raster
recast
shearing
somewhere
thermally
traded
utilities
warm
##42
##gment
##ond
##otropic
##uded
##vich
##yama
3rd
additivity
airy
alfvenic
aps
cat
categorized
compromised
conductor
confirming
emotion
french
gcr
habitat
han
helmholtz
kaluza
leibler
n1
parameterizations
personality
pooling
progresses
propositional
qnms
querying
ran
realised
richer
splittings
suddenly
suffix
tc
throttle
tower
wsns
##ality
##cking
##eron
##eter
##linear
##nc
##osis
##pf
##print
##rma
##scribe
350
alloys
bath
clearance
compositional
cooper
denoising
ecosystem
el
excite
externally
feeling
fu
ghosts
gmp
guaranteeing
indicative
informally
invest
kurtosis
luminance
lump
mandatory
nonhomogeneous
nordstrom
outstanding
parameterize
populated
quiver
reactors
repository
rubin
seasonal
ta
transistors
war
##08
##ails
##asticity
##bound
##eam
##gd
##gy
##helial
##iers
##lial
##llar
##ln
##metries
##variant
1969
academic
accelerometer
babar
bohr
caratheodory
clauses
collaborations
constituted
contention
cultures
desire
donor
dye
embed
envelopes
fluctuating
judge
kullback
minors
occlusions
outdoor
overheads
penumbral
precession
recapture
repair
resemble
revision
rls
sandwich
sla
sojourn
subprocess
subsequences
timescales
trader
weibull
yu
##atomic
##ball
##cator
##cp
##dding
##dimensional
##grams
##kins
##nium
##ock
##oni
##opic
##ove
##rve
##versibility
##vid
##view
##yle
abuse
agreed
associates
click
cocycle
coincident
commented
cryptosystem
decimal
decomposing
differentiability
disappeared
ecs
expenditures
farther
foil
foundations
hexagonal
higgsino
horn
idl
inferior
infrastructures
inherited
int
integrates
laguerre
loadings
lowered
lur
mj
mosfet
motif
mount
phenomenologically
politician
preemptive
reggeon
regret
resistors
revisit
snp
summable
variate
weakened
##ara
##atories
##differential
##dium
##ely
##frequency
##ied
##lap
##rators
##rily
##rse
##ulates
##usion
##vr
##yder
##ying
83
84
aperiodic
browser
charging
collapsing
credible
dephasing
deploy
desktop
dipolar
eg
encouraging
evidences
formalize
govern
hospital
inconsistency
instructive
intracellular
inward
leaky
linux
lipid
lithium
nanostructures
nlff
nonperturbative
observability
philosophy
projectors
psd
pv
sha
specimen
substitutive
suggestions
summaries
suspended
thomas
traits
transmits
var
##chev
##fold
##gi
##gin
##ller
##oids
##oken
##ql
##used
##ustion
##wf
88
accessing
accumulate
adp
amorphous
arrange
biggest
broadcasting
bss
cars
celebrated
characterizations
codeword
commander
convincing
designers
discriminating
dyson
enrichment
episodes
exchanging
extremes
forests
governs
grammars
graphene
identifiable
impression
langmuir
maple
metamaterial
military
periodogram
photodiode
polytopic
prefetch
pulsation
pursue
recalled
recommendations
reducible
replicates
retains
retrial
seq
showers
skeletons
te
tessellation
thompson
tilings
tilted
trans
transcript
unimodal
unpolarized
upcoming
wald
waveforms
##ark
##ats
##awa
##cast
##chain
##fv
##lled
##oms
##roll
##sembling
##tag
##zen
4th
73
balloon
bend
boosting
bridges
cage
catalan
centroids
circumvent
contracting
cosserat
dbpedia
decompression
deposit
existed
folded
geographic
glance
grounds
hamiltonians
intention
interactively
intricate
lst
mere
mfv
mimics
norh
occasion
pomerons
powder
proportionally
proxies
pseudogap
purchasing
routinely
sexual
spe
spp
supernovae
talking
ternary
transversality
vii
wages
wood
##05
##asp
##baum
##chemical
##down
##fm
##itter
##ject
##low
##oman
##ray
##rdt
##rus
##uri
##zi
360
absorptive
ae
aerosol
artificially
astronomy
collects
committed
counters
dash
decomposes
definiteness
destroyed
dglap
dn
download
elaborated
ferroelectric
filtergrams
finiteness
guidewire
homeomorphic
influenza
isr
legal
listing
mjls
mo
octet
paxos
photorefractive
possessing
proposing
reception
resonators
rogers
smallness
tetrahedra
uds
wonder
##electric
##ented
##icz
##lience
##mode
##nard
##nel
##nko
##nse
##onal
##production
##shi
##tting
##ucibility
##vey
1600
93
97
absorb
analyzer
animations
automation
bargaining
cards
convolutions
deemed
deform
departures
district
elevated
embodied
encrypt
exits
forgery
fts
functionally
hardening
harvey
jones
mitigate
normalisation
normed
nyquist
offs
physiological
programmed
qubits
resides
speakers
styles
sublinear
terminated
ts
umbrae
wkb
##61
##95
##afs
##ari
##ater
##cil
##dge
##foil
##gnet
##herence
##ider
##model
##mputed
##oral
##pes
##population
##sity
##uk
1950
bivector
bubbles
capacitors
combinatorics
concentric
conical
conjectures
constellation
dyadic
encryptions
enemies
ignores
inherits
intrusion
irreducibility
journal
ln
md
medial
mesoscopic
modulator
mosquito
mutant
nonuniform
nws
passbands
pertaining
piezo
propensity
resemblance
seeks
stacks
tandem
tgf
transmittance
tubular
waist
wheels
##angle
##bes
##bilities
##cline
##db
##elastic
##iv
##junction
##lene
##lli
##nikov
##oning
##otic
##rous
##sel
##symmetric
##tly
##vp
6p
beating
characterisation
charts
ellipses
fbs
fund
gmfs
heading
idler
inadequate
kac
keypoints
lions
localize
loci
lut
mellin
microstructure
monitors
motility
neighbours
op
organize
positional
quantiles
randomization
reconfigurable
researcher
retailers
scroll
steiner
stratum
subword
surroundings
thereof
transparency
unavoidable
underestimated
μm
##ada
##aging
##away
##hold
##imo
##junctive
##ph
##sibility
##tched
##ull
##ute
##vm
amenable
anticipate
automorphisms
bandpass
billion
broker
bv
caution
colonies
conforming
congruences
discretize
emphasizes
eventual
fsr
geophysical
hodge
hotter
india
insulating
intracavity
lifted
localised
lqg
morphisms
muscles
negation
ommr
orthant
salt
solute
superlinear
taqqu
tone
unparticles
vascular
##15
##ades
##ado
##ahedral
##cg
##cope
##ders
##gn
##holder
##ivation
##mics
##ones
##oo
##orphism
##osing
##phism
##pile
##spected
3000
86
alarms
barycentric
bethe
cad
collectively
comifin
commutators
contingent
decomposable
degenerated
destroy
determinations
dvb
ec
echo
elf
examines
extracellular
factorial
hybridization
illuminant
impractical
instantaneously
josephson
kb
lcp
magnetosonic
mosquitoes
multilevel
multivalued
needle
nonsmooth
omni
pinned
quantifier
recipient
reformulation
synthesize
taste
textbooks
thirdly
ultrafast
venus
wikipedia
##98
##bf
##books
##ents
##izers
##lid
##lls
##luted
##onymous
##ston
##tant
##tra
##ystem
accuracies
anchored
bec
besov
birkhoff
boussinesq
buck
cartoon
competitors
contemporary
csm
cue
descriptive
destructive
diet
dram
esp
explorer
flying
gateway
gyroscopic
hints
icu
inductance
lagrangians
levi
manifested
motivations
mouth
neuronal
plotting
resampling
rescattering
resident
restitution
rmp
soap
summer
surges
thirty
unidirectional
unlabeled
zhao
##brating
##bration
##ek
##formed
##fy
##hner
##igned
##inger
##iting
##jima
##kp
##lev
##max
##md
##oi
##omer
##pansive
##plots
##sim
##sume
##unch
##ven
71
alembert
assist
assistance
attenuated
breathing
centrifugal
closeness
crucially
cuprate
davis
declared
deuteron
eccentricity
elapsed
experimentation
expressive
factories
factorisation
finesse
g1
gathering
holonomic
ids
industries
intractable
locating
multivariable
narrowband
outbreak
paradigms
plasmonic
publish
rightmost
singly
supposing
surgical
thicker
trapezoidal
urn
vessels
volatilities
warning
ws
##47
##arc
##ax
##bal
##core
##dr
##force
##idal
##ifold
##ifying
##lators
##lian
##ospheric
##oss
##ova
##pr
##tail
##uon
##vision
1500
1967
administrative
bind
cleaning
complications
consult
countably
darkening
diagonalization
disability
dome
erdos
gyrosynchrotron
inevitable
interstellar
ivp
legitimate
mashups
medicine
memories
mono
monocular
mosaic
motifs
naked
observationally
occluded
opposing
parasitic
prompt
quantifying
reside
secrecy
signalling
subdivided
superfields
tremendous
unavailable
unequal
uni
wimp
##70
##anule
##cene
##cling
##ctions
##ibilities
##lan
##ners
##osable
##ounds
##pied
##plate
##potential
##sov
##state
##tti
##val
193
adoption
allee
annotations
bimodal
bio
bisection
blend
bt
burn
catalyst
cheap
codon
coincidences
collapses
correlators
crop
disordered
dopplergrams
eleven
females
friend
ft
gbps
gelfand
gui
imc
incompatible
inevitably
intact
interband
manifestations
mathematician
modulations
multimodal
multispectral
outlet
perceive
priorities
prize
projectile
pursued
realism
referenced
regressions
reversing
screw
shutter
slender
stacking
stanley
supplement
tableaux
threat
translating
triggers
undetermined
ups
vr
##77
##aded
##ancies
##butive
##dc
##eer
##ho
##lates
##lining
##mss
##nial
##pelled
##rsor
##rum
##tial
##tree
##tural
##water
##zure
79
82
900
91
alleles
asymptotical
bgp
capillary
cfc
conservatism
delivering
earthquake
enforces
erroneous
establishment
etching
factory
grb
ht
imaged
impressive
incumbent
instanton
kneser
lacks
laurent
luminescence
official
ought
owl
rainbow
reservoirs
responds
rotors
shortcomings
shots
shrinks
spanner
stylized
teacher
teams
tour
upflow
useless
vis
wolf
##aking
##ast
##ati
##bling
##che
##ene
##enko
##ern
##hood
##ivate
##lites
##mated
##mma
##ply
##qg
##ress
##send
##sia
##sure
##tar
##tional
##width
5000
acceptor
antibiotic
asking
benz
binning
certainty
doses
economical
energetically
entangled
her2
iir
incorrectly
interchanging
interconnect
ix
jurisdictions
kinematically
mss
multiplet
multiplets
oecd
orientable
phrase
posets
predominant
profitable
pseudolines
radical
rater
recognizer
seismology
shg
sketches
splice
splitter
subsampling
transcendental
vol
vulnerable
##02
##13
##acial
##alization
##ave
##charge
##dication
##dom
##flare
##gap
##ind
##ius
##jection
##lexion
##llow
##oidal
##tangent
##vc
##visor
adults
anywhere
astrophysics
attempting
augmentation
btz
calibrations
clamped
classifications
coins
collide
crank
criticality
daughter
delicate
dg
disruption
dsc
elasticities
entropic
ep
equicontinuous
fps
fresh
granger
hts
imagers
inflection
innovative
interferometric
leaders
mathematica
misleading
multipoint
nl
notch
ot
pade
pensions
phones
polarised
pooled
pursuit
radiometric
reserve
revolution
rid
rips
semantically
ses
specificity
steadily
succeeds
successor
superiority
surviving
textbook
tissues
uncovered
underestimate
unweighted
viruses
##09
##32
##49
##aks
##aly
##arization
##cut
##face
##gation
##grid
##hv
##lops
##particles
##racted
##shing
##uency
##uo
##well
89
admitted
advent
agency
anisotropies
awareness
ber
bianchi
bonding
cambridge
cdaw
chirp
deficiency
deficit
disturbed
downflows
drilling
eigenfrequencies
gaussians
granted
homogenous
ilp
immersed
indistinguishability
isotopic
iterates
japanese
john
jupiter
kkr
learns
limbs
lrt
manipulating
mantle
meanings
migrate
minimise
mol
n2
nvidia
outlier
percentages
picosecond
polymers
popov
predetermined
quantifies
quartz
ranged
regressors
reminiscent
repeats
respondents
s1
selectivity
sharper
smc
spinning
subharmonic
subintervals
supplies
tips
vat
wdm
worms
##aff
##astic
##bar
##bute
##dar
##diagonal
##ect
##encing
##iations
##imised
##ively
##omous
##ope
##oulos
##pating
##processed
##ructuring
##ucible
##uest
##uth
##ym
##zer
264
ablated
additions
anatomical
antighost
buoyant
complemented
confining
consequent
deflected
delegation
deterioration
developer
dihedral
distinguishable
eisenstein
enforcing
fermat
forgetting
grbs
hourly
ingoing
interfere
kruskal
logs
maker
maturation
melnikov
mother
nest
obeying
occupies
ohmic
patterning
pays
pests
picard
poynting
propulsion
pulsating
purchase
pythia
resorting
sell
singlets
stacked
strand
succeeded
tending
timer
title
universally
virtuality
weakness
whistler
xrd
##04
##17
##chromatic
##ella
##fr
##iating
##ilisation
##imeters
##keletal
##lie
##nate
##otes
##pixel
##rates
##rc
##scribed
##tooth
##ued
##utation
##variance
##vin
##ware
##zens
1966
amplifiers
bao
bc
bl
commitments
cuo
definable
deserves
desorption
ecology
enumerate
evidenced
factorizations
frontal
harmful
harp
hat
hf
hip
hyperparameters
ica
immersion
invocation
kl
logically
lti
manifests
naively
parametrically
picks
quasiperiodic
shrink
siso
slipping
sole
soviet
staggered
strata
succeed
taxonomy
telemetry
tradeoffs
tropical
vacation
vdf
waits
whittle
##berger
##culating
##flares
##fying
##gnition
##gp
##iller
##ira
##km
##light
##motive
##ord
##ories
##part
##passes
##polar
##pso
##quark
##ratory
##second
##ucting
##ynthesis
1980s
220
450
accelerators
anticommuting
antigen
attract
bbn
bed
breeding
cactus
cca
cheating
clarified
deflections
denominators
dissemination
downwards
eigenspace
ems
erg
exams
gan
gcg
grades
gyro
historically
inhibitory
lay
magnetohydrodynamic
manages
mh
multipole
netherlands
organizing
ownership
parisian
percentile
pitchfork
pupil
r1
residents
restart
rewards
saturate
shimmy
sim
smoking
sne
stance
supergranular
superposed
suppresses
surrogates
tokens
unspecified
vacancy
vowel
wafer
watermarking
wild
williams
winner
winter
##80
##ague
##aling
##ama
##amp
##ancy
##bles
##bula
##iance
##iator
##ilised
##ished
##level
##live
##loading
##nde
##oto
##rv
##sions
##strip
##vities
##yr
##zes
192
1b
87
alive
annuity
assures
catalogs
cooler
d1
dh
duplicate
durable
f2
fatou
felt
fringe
gnrh
hypersurfaces
hysteretic
ib
isis
jacket
mars
matroid
moscow
nonconvex
opt
parametrizations
penalties
peptide
polyakov
prandtl
predecessor
qft
qualities
r2
rasch
recruitment
reforms
reserved
saga
sam
scanner
sheaf
stakeholders
sunlight
supplier
survives
tdp
ties
uavs
uncoupled
vfc
wei
##97
##aid
##bh
##dor
##erence
##head
##imate
##inescence
##ked
##lop
##mentary
##rain
##rons
##room
##sch
##tations
##uder
##ug
##uminescence
##uned
##unov
##vers
##void
##warfs
##yrene
authorization
bringing
census
chan
characterise
chern
deconvolution
depreciation
dr
emanating
enlarge
eu
footprint
fulfilling
gasb
glueball
hopefully
hurst
jurisdiction
ks
lightweight
logarithmically
maxwellian
membranes
neutrons
nitrate
nonrelativistic
ordinates
patterned
persists
phenotype
plaintexts
premise
prevented
rearranged
selections
sorts
statically
steepest
submission
suite
supersingular
timely
ulam
unrestricted
upright
usable
versatile
##01
##ault
##aya
##cure
##dh
##itioners
##js
##mble
##moto
##nas
##nclusive
##opy
##ork
##ptive
##racy
##seen
##sist
##spectral
##string
##trusion
##tube
##uries
##west
abruptly
attach
attainable
axiomatic
blended
broadened
catch
categorization
chapman
closes
confused
contracted
contractible
conversation
coproduct
dct
dec
demanded
des
devise
discovering
duplication
erlang
everyday
fake
fds
ffbrst
hierarchies
insertions
inspecting
irrational
mashup
mdf
multiobjective
nso
periphery
phd
pioneer
prospects
queried
questionnaire
race
remedy
residence
rocket
scholars
sensed
sitting
stone
subadditive
tent
unpredictable
vcpu
vegetation
winning
##cks
##culation
##eb
##hesized
##list
##mr
##nberg
##ocal
##phy
##ressed
##sect
##the
##ually
##xed
1990s
6t
adm
brightest
clues
compactified
confirmation
cramer
dbi
deaths
disambiguation
dog
ellipsoids
emergency
emitter
encompassing
engage
examinee
ffd
gauges
gel
handoff
hemispheric
incomes
interoperability
invented
lung
lvi
macroeconomic
mock
mpa
multitude
overlaid
overloaded
penguin
posture
qa
quantifiers
radiating
robertson
separability
sinks
someone
spatiotemporal
steeper
stepwise
strengthen
subclass
syndrome
tarski
teleparallel
timelike
tomographic
traversing
trimmed
wavefunction
weaknesses
wick
worldwide
wormhole
##actic
##alysis
##arian
##ciation
##determined
##enter
##free
##fully
##gl
##iser
##izations
##nee
##ometers
##orting
##phs
##plify
##racies
##range
##real
##rin
##sable
##sample
##tated
##teral
##uda
##uding
##ui
##uli
##ump
##wamy
##xon
2pl
aa
adc
administration
alexander
appreciate
beads
bird
charginos
ciphertexts
concurrency
cpa
crash
darker
destinations
destruction
diffeomorphisms
disabled
engaged
enjoy
facular
faddeev
flattening
formulating
gallery
holling
il
inlet
inspiration
invasive
lewis
messenger
motivating
multiset
nakariakov
nanotubes
nonexistence
nonstationary
outlines
pcs
ppm
pushing
radix
raphson
realizable
routed
segmentations
smearing
sph
spiking
steam
sv
tertiary
tls
traversed
tu
valleys
vc
vrf
##53
##cus
##domains
##galactic
##helm
##int
##isk
##jee
##locking
##mity
##morphism
##new
##nstein
##olet
##ona
##rants
##rey
##sampling
##size
##terminism
##types
##ume
##usted
##uted
1970s
a5
abroad
advice
alert
appendices
beautiful
blows
caches
caught
chpt
composable
confine
definitive
dht
elemental
ergodicity
extrema
fortran
funds
graham
helped
hernandez
hide
indium
influencing
intermediary
interruptions
investors
invokes
lambertian
minimality
modulate
monic
nlsp
nmssm
numeraire
organised
outermost
p3
peripheral
polycrystalline
psychological
ramp
ratan
readout
remotely
revisions
rts
sideband
sparticle
stanford
strands
tachyon
told
transposition
traverse
tsp
undoped
virulence
vivo
##cas
##cise
##commutativity
##ctic
##cture
##cu
##eus
##ferent
##frame
##gated
##hde
##llars
##luid
##lux
##nald
##oard
##orbed
##orted
##ostat
##scheduling
##takes
##tium
##tp
##uosity
##volved
##yan
##yl
acceptors
aco
adder
adsorption
altering
andrews
argues
associating
basins
bifurcated
birthday
consolidated
contractive
davies
decapsulation
dictated
differentials
eigenstate
epidemiological
esa
facebook
factoring
fano
feller
folds
ftc
hes1
heuristically
indefinite
infective
interarrival
interleaving
ionisation
labelling
lecture
leisure
literals
lottery
meantime
mental
mps
nir
nonlinearly
nusselt
owners
paint
parametrisation
passenger
pen
penetrate
pervasive
porosity
puf
quenched
questionable
raters
reformulate
remnant
replies
resummed
river
s2
selectively
speculate
sql
stimulation
submatrices
succession
synaptic
texts
unlimited
viability
warp
wavenumbers
yao
##25
##35
##bers
##ctured
##domain
##dra
##ended
##factor
##gard
##gon
##gr
##hr
##iative
##if
##itability
##ited
##iver
##ji
##mms
##mped
##ocus
##olate
##onia
##ori
##pical
##pressed
##pression
##rie
##rization
##rotope
##sects
##tary
##tsky
##ytes
##zy
1960s
america
ams
arpes
bjorken
borne
brake
complication
contingency
conventionally
datum
degrades
director
discarding
discoveries
extinct
founded
france
gluinos
hadronization
helmet
howard
ifn
impossibility
interrupted
lambert
landmark
lexical
lithography
magnetoacoustic
mandible
monetary
operative
orange
outperformed
outwards
perturb
polyline
polymerization
poverty
powered
premiums
producer
professional
refinements
rice
separators
shm
srf
sst
swarms
undesired
unions
virtualized
waste
win
zenith
##0s
##16
##af
##alignment
##ately
##cke
##dable
##doped
##emission
##eq
##esis
##ester
##exciton
##fish
##ime
##irling
##itioner
##las
##latt
##liograph
##lisation
##nnel
##ntial
##ogue
##onant
##pel
##plified
##qs
##rametrize
##rations
##right
##rtain
##truction
##ualification
##umb
##ums
10000
animated
appreciable
approved
biometrics
bitangent
cached
cern
charitable
coli
compensating
concretely
consecutively
containers
controversial
corpora
decode
emphasizing
erupted
excursion
funding
gating
golden
grassmannian
hosted
inform
insider
lapse
leibniz
lod
mice
milliseconds
monolithic
moreton
paying
permanently
prefetching
pretty
pushdown
railway
resting
retrieving
reused
shorthand
simulink
solitonic
spectro
sprout
supergranulation
swaps
ticket
tolerate
tracer
traders
ue
unsolved
verbal
whom
wsmx
##68
##ands
##ases
##bra
##cating
##cellular
##cipher
##ees
##even
##forcement
##gds
##hore
##ifier
##ledged
##lution
##nders
##ola
##ologists
##rance
##roid
##roma
##rophic
##scent
##self
##sels
##umar
1962
accommodated
angiogenesis
autonomy
biomass
burstiness
campaigns
cascaded
circularly
coercivity
complicates
compress
conquer
counterterm
csd
curvilinear
dangerous
def
distinguisher
drinkers
eeg
faithful
fibrils
finest
flagellar
forwarded
gf
gls
guesses
gw
heterotic
incur
interiors
judgment
kelvin
kitt
lengthy
lobes
localisation
makers
mash
matting
multilayer
multiprocessor
painleve
paragraphs
parallelized
portable
portraits
pseudocode
qi
qsls
ramsey
reachability
relied
richardson
sdp
sects
senses
structurally
sudakov
tabulated
thermalization
threaded
unipolar
volatile
watermark
went
ybco
##74
##alt
##bauer
##ckel
##cv
##eek
##ept
##ersen
##gotiation
##hu
##ids
##igible
##location
##lton
##lyi
##mate
##omorphic
##otent
##own
##plicate
##poses
##rative
##relation
##rious
##sector
##sulation
##tile
##uacy
##uin
##ustic
##warf
##wr
##xin
aggregating
assured
beltrami
bsde
bursting
cascades
chances
chemotaxis
cherenkov
church
concentrating
contractions
counterexample
defense
dt
durability
equi
expenses
explores
exposures
fission
gossip
harvest
hulls
isotopes
jackson
killed
lasing
mcg
multiplexing
nominally
outage
overestimate
overly
pathogens
pesticide
pickup
pop
preferentially
programmable
qop
rankin
ratings
retarded
speedups
substances
suppressing
tighter
tunability
ultrashort
uvcs
##21
##any
##arm
##avin
##aws
##bis
##city
##code
##critical
##dent
##efficiency
##gt
##hb
##hd
##holm
##ically
##idable
##lder
##llo
##minates
##mir
##molecular
##mpute
##obin
##ocity
##old
##onds
##ott
##outh
##physical
##pted
##quisite
##rank
##ria
##rst
##saki
##trices
##typing
##vably
##volute
##wicz
1964
20th
abstractions
adjusts
airway
ancient
appreciated
aversion
beran
bohm
canceling
centres
chromatic
coexisting
concentrates
decoded
deg
diquarks
diverging
enjoys
erasure
exerted
fabry
fate
fragile
gated
genomic
gl
glue
hastings
illusion
impacting
inappropriate
irrep
irreps
iss
kd
linearizing
lmc
managers
marginals
meshing
microsoft
occasions
oct
parental
parenthesis
polytropic
postulated
precursors
profiling
pseudoline
quotients
residential
revisited
scarce
scott
secretors
shield
ssd
strangeness
subcomplex
submit
subroutine
tan
tangible
teaching
thinner
trim
twists
uncontrolled
weakening
www
##65
##90
##bin
##ciding
##day
##defined
##ffer
##gand
##gregation
##iang
##ign
##ilise
##issa
##jecting
##lapping
##lay
##lize
##lizing
##logic
##lography
##losing
##merce
##nceived
##night
##ocusing
##oot
##pensable
##statistical
##steps
##tom
##tro
##upt
##vocated
1963
acute
amr
assert
awake
barely
bearings
berry
bidding
blur
button
cantelli
centering
cliques
compelling
composability
contradictory
coprime
craniofacial
distributing
drastic
economies
everyone
evh
fatigue
font
holm
homogenization
hosting
hs
ibis
inhibitor
isodistant
itm
kepler
kms
leon
lowers
mail
mar
merits
micropolar
nonvanishing
optimistic
phenotypes
photovoltaic
pll
preceded
prefers
profound
reinforced
russian
sb
sbpso
semisimple
settled
shedding
societies
solarsoft
solstice
stark
subgame
substance
suprathermal
tang
terminating
toolkit
void
wedges
##18
##acon
##bank
##bic
##burg
##circular
##coli
##cratic
##ctator
##ddington
##eve
##fts
##hension
##ife
##iment
##ivator
##joint
##kis
##kr
##lative
##lia
##limited
##lute
##mia
##mise
##nded
##onious
##onment
##order
##ordered
##rium
##sc
##spheric
##talk
##test
##tin
##ucker
##uristic
##utrino
##worthiness
##xi
##xicity
##zin
abbreviated
balances
beforehand
buffering
buried
centric
clocks
commutativity
comoving
composites
coordinator
cortex
cruise
das
deadlines
denser
deuterium
dies
doa
enit
filippov
float
fluences
gaining
gaits
generalisation
gonzalez
gsl
hexagon
hp
icp
impeller
intuitionistic
lco
liability
listening
london
males
mechanically
misspecification
mst
myers
niobate
nonequilibrium
parameterisation
periodical
perot
pertinent
provability
publishing
queuing
reactively
regressor
reordering
resilient
roads
schools
securely
seldom
skorokhod
tap
testbed
touching
transitivity
uptake
weinberg
younger
##!
##"
###
##$
##%
##&
##'
##(
##)
##*
##,
##-
##.
##/
##:
##;
##<
##=
##>
##?
##@
##[
##\
##]
##^
##_
##{
##|
##}
##£
##§
##©
##®
##°
##æ
##ø
##μ
##π
##†
##•
##‰
##€
##␣
##♭
##♯
